{
  "version": "1.0",
  "truncation": null,
  "padding": null,
  "added_tokens": [
    {
      "id": 0,
      "content": "<|pad|>",
      "single_word": false,
      "lstrip": false,
      "rstrip": false,
      "normalized": false,
      "special": true
    },
    {
      "id": 1,
      "content": "<|eos|>",
      "single_word": false,
      "lstrip": false,
      "rstrip": false,
      "normalized": false,
      "special": true
    }
  ],
  "normalizer": null,
  "pre_tokenizer": {
    "type": "ByteLevel",
    "add_prefix_space": false,
    "trim_offsets": true,
    "use_regex": true
  },
  "post_processor": null,
  "decoder": {
    "type": "ByteLevel",
    "add_prefix_space": true,
    "trim_offsets": true,
    "use_regex": true
  },
  "model": {
    "type": "BPE",
    "dropout": null,
    "unk_token": null,
    "continuing_subword_prefix": null,
    "end_of_word_suffix": null,
    "fuse_unk": false,
    "byte_fallback": false,
    "ignore_merges": false,
    "vocab": {
      "<|pad|>": 0,
      "<|eos|>": 1,
      "!": 2,
      "\"": 3,
      "'": 4,
      "(": 5,
      ")": 6,
      ",": 7,
      "-": 8,
      ".": 9,
      ":": 10,
      ";": 11,
      "?": 12,
      "a": 13,
      "b": 14,
      "c": 15,
      "d": 16,
      "e": 17,
      "f": 18,
      "g": 19,
      "h": 20,
      "i": 21,
      "j": 22,
      "k": 23,
      "l": 24,
      "m": 25,
      "n": 26,
      "o": 27,
      "p": 28,
      "q": 29,
      "r": 30,
      "s": 31,
      "t": 32,
      "u": 33,
      "v": 34,
      "w": 35,
      "x": 36,
      "y": 37,
      "z": 38,
      "Ċ": 39,
      "Ġ": 40,
      "Ġt": 41,
      "he": 42,
      "Ġa": 43,
      "in": 44,
      "re": 45,
      "Ġthe": 46,
      "on": 47,
      "Ġs": 48,
      "nd": 49,
      "er": 50,
      "Ġw": 51,
      "Ġo": 52,
      "Ġf": 53,
      "en": 54,
      "Ġc": 55,
      "ed": 56,
      "Ġb": 57,
      "at": 58,
      "Ġh": 59,
      "ou": 60,
      "it": 61,
      "or": 62,
      "is": 63,
      "Ġp": 64,
      "es": 65,
      "Ġof": 66,
      "Ġth": 67,
      "Ġm": 68,
      "Ġin": 69,
      "ar": 70,
      "an": 71,
      "al": 72,
      "ing": 73,
      "Ġand": 74,
      "as": 75,
      "Ġd": 76,
      "Ġn": 77,
      "Ġto": 78,
      "ic": 79,
      "le": 80,
      "Ġe": 81,
      "ro": 82,
      "Ġon": 83,
      "ion": 84,
      "ent": 85,
      "Ġre": 86,
      "Ġl": 87,
      "and": 88,
      "red": 89,
      "ve": 90,
      "Ġg": 91,
      "il": 92,
      "st": 93,
      "ig": 94,
      "Ġu": 95,
      "ous": 96,
      "Ġbe": 97,
      "om": 98,
      "ir": 99,
      "the": 100,
      "ly": 101,
      "am": 102,
      "Ġhu": 103,
      "ac": 104,
      "ad": 105,
      "ty": 106,
      "Ġfor": 107,
      "Ġone": 108,
      "Ġwas": 109,
      "ine": 110,
      "Ġtw": 111,
      "Ġse": 112,
      "ndred": 113,
      "Ġhundred": 114,
      "im": 115,
      "ousand": 116,
      "Ġthousand": 117,
      "Ġhe": 118,
      "id": 119,
      "Ġst": 120,
      "th": 121,
      "Ġas": 122,
      "ol": 123,
      "se": 124,
      "ur": 125,
      "ct": 126,
      "igh": 127,
      "ter": 128,
      "ver": 129,
      "ow": 130,
      "Ġwh": 131,
      "Ġthat": 132,
      "ce": 133,
      "ith": 134,
      "ut": 135,
      "ay": 136,
      "Ġnine": 137,
      "Ġr": 138,
      "Ġis": 139,
      "ot": 140,
      "Ġwith": 141,
      "Ġal": 142,
      "el": 143,
      "Ġun": 144,
      "Ġtwo": 145,
      "Ġit": 146,
      "ation": 147,
      "'s": 148,
      "ch": 149,
      "te": 150,
      "if": 151,
      "Ġan": 152,
      "Ġcon": 153,
      "ive": 154,
      "Ġby": 155,
      "Ġde": 156,
      "our": 157,
      "Ġ\"": 158,
      "Ġat": 159,
      "ul": 160,
      "us": 161,
      "ight": 162,
      "Ġj": 163,
      "ain": 164,
      "rom": 165,
      "Ġwe": 166,
      "Ġhis": 167,
      "Ġ(": 168,
      "ge": 169,
      "Ġk": 170,
      "Ġv": 171,
      "Ġch": 172,
      "ri": 173,
      "Ġsu": 174,
      "pe": 175,
      "Ġcom": 176,
      "ix": 177,
      "est": 178,
      "od": 179,
      "ers": 180,
      "ree": 181,
      "Ġfrom": 182,
      "ven": 183,
      "um": 184,
      "ill": 185,
      "Ġpro": 186,
      "ld": 187,
      "os": 188,
      "ich": 189,
      "Ġne": 190,
      "ate": 191,
      "ist": 192,
      "Ġor": 193,
      "ther": 194,
      "enty": 195,
      "res": 196,
      "un": 197,
      "et": 198,
      "qu": 199,
      "Ġy": 200,
      "Ġsh": 201,
      "Ġunk": 202,
      "Ġsix": 203,
      "ap": 204,
      "ore": 205,
      "ak": 206,
      "all": 207,
      "op": 208,
      "Ġex": 209,
      "ies": 210,
      "Ġwere": 211,
      "ard": 212,
      "ab": 213,
      "Ġle": 214,
      "gh": 215,
      "Ġwhich": 216,
      "ess": 217,
      "Ġar": 218,
      "ment": 219,
      "ber": 220,
      "Ġnot": 221,
      "Ġpl": 222,
      "ant": 223,
      "art": 224,
      "iv": 225,
      "ity": 226,
      "ie": 227,
      "Ġare": 228,
      "Ġfour": 229,
      "ame": 230,
      "ag": 231,
      "ong": 232,
      "ud": 233,
      "ort": 234,
      "Ġhad": 235,
      "oc": 236,
      "one": 237,
      "ip": 238,
      "ave": 239,
      "ated": 240,
      "em": 241,
      "Ġthree": 242,
      "Ġeight": 243,
      "Ġtr": 244,
      "Ġfive": 245,
      "ough": 246,
      "ian": 247,
      "teen": 248,
      "ast": 249,
      "Ġbut": 250,
      "ack": 251,
      "ust": 252,
      "Ġro": 253,
      "av": 254,
      "ound": 255,
      "ost": 256,
      "ould": 257,
      "ally": 258,
      "Ġwhe": 259,
      "cl": 260,
      "Ġtwenty": 261,
      "ord": 262,
      "tw": 263,
      "pp": 264,
      "ide": 265,
      "Ġthir": 266,
      "ary": 267,
      "Ġtheir": 268,
      "oun": 269,
      "Ġall": 270,
      "ia": 271,
      "fe": 272,
      "Ġwho": 273,
      "rit": 274,
      "Ġad": 275,
      "Ġseven": 276,
      "so": 277,
      "ure": 278,
      "ome": 279,
      "Ġman": 280,
      "Ġen": 281,
      "Ġthis": 282,
      "Ġthey": 283,
      "Ġcl": 284,
      "Ġab": 285,
      "ction": 286,
      "Ġaf": 287,
      "Ġwor": 288,
      "ren": 289,
      "Ġhave": 290,
      "to": 291,
      "Ġfir": 292,
      "ell": 293,
      "cc": 294,
      "Ġher": 295,
      "out": 296,
      "Ġsc": 297,
      "per": 298,
      "ish": 299,
      "man": 300,
      "Ġfirst": 301,
      "pt": 302,
      "Ġfif": 303,
      "ial": 304,
      "her": 305,
      "Ġbo": 306,
      "ra": 307,
      "pl": 308,
      "Ġno": 309,
      "Ġcont": 310,
      "ign": 311,
      "ition": 312,
      "ass": 313,
      "age": 314,
      "Ġ'": 315,
      "Ġalso": 316,
      "Ġme": 317,
      "Ġper": 318,
      "ke": 319,
      "ire": 320,
      "Ġus": 321,
      "Ġits": 322,
      "Ġsp": 323,
      "Ġte": 324,
      "ru": 325,
      "Ġam": 326,
      "Ġhim": 327,
      "Ġcomp": 328,
      "ime": 329,
      "Ġgr": 330,
      "ear": 331,
      "Ġag": 332,
      "ue": 333,
      "for": 334,
      "Ġnew": 335,
      "Ġgo": 336,
      "ical": 337,
      "ater": 338,
      "ry": 339,
      "ub": 340,
      "ond": 341,
      "hed": 342,
      "Ġhas": 343,
      "Ġother": 344,
      "Ġdis": 345,
      "Ġcomm": 346,
      "ok": 347,
      "Ġmar": 348,
      "Ġres": 349,
      "Ġfe": 350,
      "ts": 351,
      "ile": 352,
      "ted": 353,
      "Ġbeen": 354,
      "ind": 355,
      "Ġi": 356,
      "og": 357,
      "Ġbec": 358,
      "Ġser": 359,
      "Ġrec": 360,
      "ice": 361,
      "du": 362,
      "ace": 363,
      "ans": 364,
      "own": 365,
      "au": 366,
      "Ġim": 367,
      "Ġafter": 368,
      "ance": 369,
      "Ġthem": 370,
      "Ġso": 371,
      "Ġdes": 372,
      "Ġeigh": 373,
      "Ġup": 374,
      "ved": 375,
      "Ġthirty": 376,
      "ence": 377,
      "Ġpart": 378,
      "wn": 379,
      "Ġover": 380,
      "iz": 381,
      "Ġshe": 382,
      "Ġout": 383,
      "Ġsev": 384,
      "Ġninety": 385,
      "ib": 386,
      "oll": 387,
      "ach": 388,
      "een": 389,
      "Ġwould": 390,
      "Ġcan": 391,
      "ade": 392,
      "uring": 393,
      "Ġnor": 394,
      "ne": 395,
      "ions": 396,
      "Ġforty": 397,
      "act": 398,
      "Ġbr": 399,
      "Ġco": 400,
      "Ġpre": 401,
      "ations": 402,
      "ite": 403,
      "Ġwhen": 404,
      "Ġplay": 405,
      "clud": 406,
      "Ġinto": 407,
      "Ġoff": 408,
      "Ġele": 409,
      "ose": 410,
      "ory": 411,
      "Ġfifty": 412,
      "Ġmore": 413,
      "Ġspe": 414,
      "land": 415,
      "able": 416,
      "Ġyear": 417,
      "Ġmo": 418,
      "Ġtime": 419,
      "ress": 420,
      "nder": 421,
      "ced": 422,
      "ail": 423,
      "Ġqu": 424,
      "Ġap": 425,
      "Ġpr": 426,
      "ings": 427,
      "ates": 428,
      "are": 429,
      "sel": 430,
      "zer": 431,
      "ward": 432,
      ".\"": 433,
      "Ġind": 434,
      "urn": 435,
      "Ġthere": 436,
      "ang": 437,
      "old": 438,
      "ks": 439,
      "ens": 440,
      "\".": 441,
      "reat": 442,
      "Ġpe": 443,
      "vers": 444,
      "Ġfl": 445,
      "aw": 446,
      "ake": 447,
      "),": 448,
      "ces": 449,
      "ric": 450,
      "Ġsec": 451,
      "ied": 452,
      "ff": 453,
      "Ġpar": 454,
      "Ġinclud": 455,
      "Ġten": 456,
      "Ġsome": 457,
      "ase": 458,
      "way": 459,
      "zero": 460,
      "vel": 461,
      "ult": 462,
      "Ġdo": 463,
      "les": 464,
      "Ġsixty": 465,
      "oin": 466,
      "Ġeighty": 467,
      "ason": 468,
      "Ġthan": 469,
      "Ġform": 470,
      "Ġrep": 471,
      "Ġseventy": 472,
      "ll": 473,
      "ased": 474,
      "Ġmay": 475,
      "mber": 476,
      "Ġbl": 477,
      "ious": 478,
      "amp": 479,
      "Ġfil": 480,
      "fore": 481,
      "Ġonly": 482,
      "Ġwar": 483,
      "cted": 484,
      "ited": 485,
      "Ġchar": 486,
      "Ġcons": 487,
      "Ġwill": 488,
      "ors": 489,
      "Ġear": 490,
      "Ġinter": 491,
      "Ġagain": 492,
      "tain": 493,
      "ild": 494,
      "Ġrem": 495,
      "Ġsou": 496,
      "Ġkn": 497,
      "Ġmost": 498,
      "Ġcol": 499,
      "aid": 500,
      "Ġfilm": 501,
      "Ġunder": 502,
      "Ġcoun": 503,
      "rib": 504,
      "Ġfin": 505,
      "very": 506,
      "Ġgen": 507,
      "Ġthr": 508,
      "Ġcent": 509,
      "ood": 510,
      ").": 511,
      "ck": 512,
      "Ġem": 513,
      "ick": 514,
      "iss": 515,
      "Ġev": 516,
      "Ġabout": 517,
      "ike": 518,
      "Ġduring": 519,
      "ath": 520,
      "ollow": 521,
      "Ġreg": 522,
      "Ġacc": 523,
      "Ġcar": 524,
      "ons": 525,
      "ters": 526,
      "ubl": 527,
      "Ġsub": 528,
      "Ġact": 529,
      "gan": 530,
      "Ġgame": 531,
      "ph": 532,
      "als": 533,
      "Ġfr": 534,
      "att": 535,
      "Ġsy": 536,
      "ft": 537,
      "Ġwork": 538,
      "Ġass": 539,
      "two": 540,
      "Ġwhile": 541,
      "Ġpos": 542,
      "Ġapp": 543,
      "Ġbu": 544,
      "Ġph": 545,
      "Ġsuch": 546,
      "Ġend": 547,
      "\",": 548,
      "Ġlo": 549,
      "Ġsong": 550,
      "Ġthen": 551,
      "hip": 552,
      "Ġbetw": 553,
      "Ġwhere": 554,
      "Ġnum": 555,
      "ict": 556,
      "Ġimp": 557,
      "Ġbetween": 558,
      "Ġthrough": 559,
      "Ġpres": 560,
      "Ġrel": 561,
      "Ġyou": 562,
      "Ġday": 563,
      "Ġ,": 564,
      "Ġac": 565,
      "Ġprodu": 566,
      "Ġany": 567,
      "Ġmade": 568,
      "Ġatt": 569,
      "Ġbeing": 570,
      "je": 571,
      "ents": 572,
      "ton": 573,
      "Ġret": 574,
      "eric": 575,
      "Ġhigh": 576,
      "Ġlater": 577,
      "Ġsecond": 578,
      "Ġmus": 579,
      "af": 580,
      "ular": 581,
      "ten": 582,
      "Ġeng": 583,
      "ning": 584,
      "iew": 585,
      "ational": 586,
      "Ġbro": 587,
      "Ġfollow": 588,
      "Ġhow": 589,
      "Ġbefore": 590,
      "Ġmon": 591,
      "Ġent": 592,
      "Ġau": 593,
      "Ġworld": 594,
      "Ġinc": 595,
      "Ġrecord": 596,
      "Ġarm": 597,
      "Ġmin": 598,
      "ause": 599,
      "Ġrele": 600,
      "ise": 601,
      "Ġep": 602,
      "form": 603,
      "Ġcall": 604,
      "ating": 605,
      "Ġif": 606,
      "ished": 607,
      "Ġma": 608,
      "Ġalb": 609,
      "Ġob": 610,
      "ever": 611,
      "Ġair": 612,
      "ames": 613,
      "Ġthese": 614,
      "Ġjo": 615,
      "self": 616,
      "Ġsupp": 617,
      "ily": 618,
      "ision": 619,
      "ral": 620,
      "Ġed": 621,
      "Ġseason": 622,
      "Ġspec": 623,
      "led": 624,
      "ific": 625,
      "Ġgu": 626,
      "Ġappe": 627,
      "Ġagainst": 628,
      "Ġpubl": 629,
      "Ġlar": 630,
      "Ġsur": 631,
      "Ġsm": 632,
      "Ġcap": 633,
      "Ġwell": 634,
      "Ġwrit": 635,
      "ual": 636,
      "Ġnorth": 637,
      "ident": 638,
      "son": 639,
      "elve": 640,
      "Ġstate": 641,
      "Ġsing": 642,
      "Ġsaid": 643,
      "io": 644,
      "..": 645,
      "ince": 646,
      "Ġbel": 647,
      "Ġteam": 648,
      "gr": 649,
      "tern": 650,
      "ss": 651,
      "Ġshow": 652,
      "other": 653,
      "ather": 654,
      "Ġgener": 655,
      "Ġwhat": 656,
      "ife": 657,
      "Ġboth": 658,
      "Ġpol": 659,
      "Ġloc": 660,
      "ower": 661,
      "Ġyears": 662,
      "iel": 663,
      "che": 664,
      "Ġmat": 665,
      "Ġalbum": 666,
      "Ġinv": 667,
      "Ġsch": 668,
      "ived": 669,
      "Ġameric": 670,
      "air": 671,
      "ode": 672,
      "Ġmany": 673,
      "ale": 674,
      "Ġused": 675,
      "ics": 676,
      "Ġop": 677,
      "feren": 678,
      "ful": 679,
      "up": 680,
      "Ġfound": 681,
      "Ġadd": 682,
      "ative": 683,
      "Ġdec": 684,
      "ting": 685,
      "Ġdid": 686,
      "Ġlong": 687,
      "Ġinst": 688,
      "ments": 689,
      "Ġcity": 690,
      "Ġmy": 691,
      "ep": 692,
      "ury": 693,
      "its": 694,
      "Ġmem": 695,
      "Ġtwelve": 696,
      "ool": 697,
      "Ġmu": 698,
      "orn": 699,
      "Ġnumber": 700,
      "vern": 701,
      "ars": 702,
      "be": 703,
      "Ġown": 704,
      "wh": 705,
      "ought": 706,
      "Ġdif": 707,
      "Ġepis": 708,
      "ject": 709,
      "Ġstud": 710,
      "by": 711,
      "Ġdist": 712,
      "Ġexp": 713,
      "Ġcharac": 714,
      "ank": 715,
      "Ġbatt": 716,
      "oy": 717,
      "Ġset": 718,
      "Ġsouth": 719,
      "ised": 720,
      "Ġsame": 721,
      "Ġlead": 722,
      "Ġrece": 723,
      "Ġseries": 724,
      "veral": 725,
      "Ġship": 726,
      "oup": 727,
      "Ġsl": 728,
      "Ġinf": 729,
      "Ġback": 730,
      "Ġcould": 731,
      "Ġsim": 732,
      "Ġter": 733,
      "Ġlike": 734,
      "Ġint": 735,
      "Ġmill": 736,
      "igin": 737,
      "ired": 738,
      "ane": 739,
      "Ġmain": 740,
      "Ġmen": 741,
      "Ġcre": 742,
      "ures": 743,
      "Ġbecame": 744,
      "ange": 745,
      "ities": 746,
      "ople": 747,
      "ier": 748,
      "Ġdr": 749,
      "Ġdep": 750,
      "ves": 751,
      "rie": 752,
      "though": 753,
      "Ġgreat": 754,
      "Ġeleven": 755,
      "Ġdire": 756,
      "velop": 757,
      "der": 758,
      "Ġmusic": 759,
      "Ġsep": 760,
      "Ġpass": 761,
      "Ġart": 762,
      "Ġrev": 763,
      "ines": 764,
      "ared": 765,
      "co": 766,
      "tend": 767,
      "hen": 768,
      "Ġpers": 769,
      "su": 770,
      "Ġgovern": 771,
      "Ġcro": 772,
      "ible": 773,
      "Ġunited": 774,
      "iver": 775,
      "Ġcontin": 776,
      "til": 777,
      "ork": 778,
      "ians": 779,
      "hn": 780,
      "aking": 781,
      "Ġtrans": 782,
      "ained": 783,
      "Ġbrit": 784,
      "cer": 785,
      "Ġmil": 786,
      "Ġdiv": 787,
      "Ġorigin": 788,
      "Ġpeople": 789,
      "we": 790,
      "Ġseveral": 791,
      "five": 792,
      "ouse": 793,
      "me": 794,
      "cept": 795,
      "Ġstr": 796,
      "ley": 797,
      "Ġdevelop": 798,
      "Ġincluding": 799,
      "Ġpop": 800,
      "Ġprov": 801,
      "Ġking": 802,
      "Ġest": 803,
      "Ġstates": 804,
      "Ġthose": 805,
      "Ġreturn": 806,
      "Ġdown": 807,
      "az": 808,
      "ins": 809,
      "Ġbecause": 810,
      "ield": 811,
      "Ġconst": 812,
      "ually": 813,
      "Ġfifteen": 814,
      "Ġpo": 815,
      "aving": 816,
      "rop": 817,
      "ger": 818,
      "thing": 819,
      "imes": 820,
      "after": 821,
      "Ġepisode": 822,
      "ock": 823,
      "ron": 824,
      "six": 825,
      "Ġpoin": 826,
      "Ġcalled": 827,
      "ark": 828,
      "sh": 829,
      "Ġcomple": 830,
      "Ġz": 831,
      "Ġland": 832,
      "Ġke": 833,
      "Ġjust": 834,
      "this": 835,
      "cess": 836,
      "ann": 837,
      "osed": 838,
      "ature": 839,
      "ivers": 840,
      "Ġsign": 841,
      "Ġref": 842,
      "Ġsay": 843,
      "une": 844,
      "ided": 845,
      "fect": 846,
      "Ġbegan": 847,
      "Ġgroup": 848,
      "Ġcour": 849,
      "de": 850,
      "Ġca": 851,
      "con": 852,
      "Ġmod": 853,
      "Ġfam": 854,
      "Ġdesign": 855,
      "ys": 856,
      "min": 857,
      "Ġrun": 858,
      "olog": 859,
      "Ġthirteen": 860,
      "Ġnear": 861,
      "ccess": 862,
      "Ġmed": 863,
      "Ġmet": 864,
      "Ġdesc": 865,
      "Ġcor": 866,
      "Ġuse": 867,
      "bo": 868,
      "ink": 869,
      "Ġknown": 870,
      "Ġadv": 871,
      "Ġearly": 872,
      "Ġanother": 873,
      "ism": 874,
      "Ġprev": 875,
      "ially": 876,
      "ists": 877,
      "row": 878,
      "ner": 879,
      "Ġopen": 880,
      "Ġoper": 881,
      "ble": 882,
      "Ġcrit": 883,
      "ris": 884,
      "Ġoffic": 885,
      "Ġger": 886,
      "Ġel": 887,
      "ution": 888,
      "Ġuntil": 889,
      "ized": 890,
      "Ġfourteen": 891,
      "Ġconf": 892,
      "tem": 893,
      "Ġserv": 894,
      "Ġwin": 895,
      "xt": 896,
      "aced": 897,
      "Ġhist": 898,
      "three": 899,
      "Ġaust": 900,
      "Ġeach": 901,
      "wards": 902,
      "Ġgre": 903,
      "Ġste": 904,
      "iam": 905,
      "Ġschool": 906,
      "Ġann": 907,
      "Ġway": 908,
      "stem": 909,
      "Ġport": 910,
      "orm": 911,
      "rest": 912,
      "ured": 913,
      "app": 914,
      "Ġalong": 915,
      "gg": 916,
      "bers": 917,
      "nine": 918,
      "Ġgood": 919,
      "anc": 920,
      "Ġlife": 921,
      "any": 922,
      "Ġhar": 923,
      "Ġreleased": 924,
      "uc": 925,
      "Ġmuch": 926,
      "four": 927,
      "Ġins": 928,
      "ium": 929,
      "Ġocc": 930,
      "Ġdef": 931,
      "Ġbest": 932,
      "Ġwest": 933,
      "Ġjohn": 934,
      "Ġcount": 935,
      "Ġhead": 936,
      "Ġtri": 937,
      "ull": 938,
      "Ġamerican": 939,
      "Ġcolle": 940,
      "Ġrest": 941,
      "Ġsuccess": 942,
      "Ġnational": 943,
      "Ġlaw": 944,
      "Ġsystem": 945,
      "amed": 946,
      "Ġpower": 947,
      "Ġmillion": 948,
      "ute": 949,
      "Ġshould": 950,
      "Ġmaj": 951,
      "Ġdem": 952,
      "Ġnow": 953,
      "Ġtook": 954,
      "Ġbar": 955,
      "ness": 956,
      "Ġext": 957,
      "Ġhowever": 958,
      "pect": 959,
      "Ġhel": 960,
      "Ġcharacter": 961,
      "Ġpri": 962,
      "ah": 963,
      "Ġwee": 964,
      "Ġlarge": 965,
      "gust": 966,
      "ret": 967,
      "Ġplace": 968,
      "Ġpublic": 969,
      "Ġattack": 970,
      "Ġsince": 971,
      "Ġeven": 972,
      "Ġlit": 973,
      "Ġfollowing": 974,
      "Ġvar": 975,
      "Ġdescrib": 976,
      "tle": 977,
      "but": 978,
      "oot": 979,
      "ient": 980,
      "Ġmake": 981,
      "ik": 982,
      "Ġgerman": 983,
      "Ġcontinu": 984,
      "Ġju": 985,
      "ody": 986,
      "Ġsw": 987,
      "tember": 988,
      "Ġbritish": 989,
      "ants": 990,
      "Ġpartic": 991,
      "Ġline": 992,
      "ives": 993,
      "Ġhouse": 994,
      "Ġlast": 995,
      "Ġturn": 996,
      "Ġgl": 997,
      "Ġaround": 998,
      "Ġroad": 999,
      "Ġsmall": 1000,
      "Ġcr": 1001,
      "Ġsupport": 1002,
      "Ġstart": 1003,
      "Ġmajor": 1004,
      "Ġbook": 1005,
      "Ġprom": 1006,
      "gin": 1007,
      "Ġcommand": 1008,
      "Ġaugust": 1009,
      "Ġes": 1010,
      "ately": 1011,
      "Ġright": 1012,
      "Ġposs": 1013,
      "ility": 1014,
      "used": 1015,
      "Ġreceived": 1016,
      "Ġseptember": 1017,
      "ene": 1018,
      "Ġbre": 1019,
      "Ġvery": 1020,
      "Ġbuild": 1021,
      "Ġmid": 1022,
      "Ġevery": 1023,
      "Ġchild": 1024,
      "Ġkm": 1025,
      "Ġname": 1026,
      "Ġoct": 1027,
      "Ġdifferen": 1028,
      "Ġge": 1029,
      "ording": 1030,
      "ience": 1031,
      "Ġhand": 1032,
      "Ġreport": 1033,
      "Ġgovernment": 1034,
      "med": 1035,
      "Ġcamp": 1036,
      "Ġdel": 1037,
      "ains": 1038,
      "Ġty": 1039,
      "Ġarea": 1040,
      "Ġdeath": 1041,
      "Ġband": 1042,
      "Ġsoc": 1043,
      "Ġour": 1044,
      "inc": 1045,
      "ash": 1046,
      "ober": 1047,
      "ctions": 1048,
      "Ġfar": 1049,
      "ling": 1050,
      "br": 1051,
      "Ġmag": 1052,
      "na": 1053,
      "Ġwithout": 1054,
      "ither": 1055,
      "Ġgeneral": 1056,
      "ural": 1057,
      "ctor": 1058,
      "Ġcare": 1059,
      "Ġfinal": 1060,
      "Ġprop": 1061,
      "Ġold": 1062,
      "ms": 1063,
      "ving": 1064,
      "Ġgi": 1065,
      "Ġfeat": 1066,
      "Ġpur": 1067,
      "riend": 1068,
      "Ġleft": 1069,
      "Ġsixteen": 1070,
      "Ġclass": 1071,
      "Ġaustral": 1072,
      "Ġeast": 1073,
      "oss": 1074,
      "Ġsee": 1075,
      "ides": 1076,
      "Ġhome": 1077,
      "Ġoctober": 1078,
      "com": 1079,
      "thern": 1080,
      "Ġsk": 1081,
      "Ġsingle": 1082,
      "Ġmarch": 1083,
      "Ġtour": 1084,
      "Ġallow": 1085,
      "aph": 1086,
      "Ġstill": 1087,
      "Ġ.": 1088,
      "Ġopp": 1089,
      "Ġhimself": 1090,
      "ention": 1091,
      "aining": 1092,
      "hes": 1093,
      "Ġdefe": 1094,
      "Ġgames": 1095,
      "ril": 1096,
      "Ġthird": 1097,
      "ission": 1098,
      "Ġunivers": 1099,
      "Ġarmy": 1100,
      "Ġcontro": 1101,
      "ified": 1102,
      "Ġeu": 1103,
      "Ġleg": 1104,
      "ont": 1105,
      "ently": 1106,
      "aim": 1107,
      "Ġthough": 1108,
      "eng": 1109,
      "Ġtown": 1110,
      "Ġhal": 1111,
      "Ġshort": 1112,
      "ina": 1113,
      "Ġupon": 1114,
      "Ġsqu": 1115,
      "vember": 1116,
      "Ġisland": 1117,
      "lish": 1118,
      "ilt": 1119,
      "Ġav": 1120,
      "Ġjune": 1121,
      "Ġperson": 1122,
      "uss": 1123,
      "Ġkill": 1124,
      "Ġbattle": 1125,
      "Ġexpl": 1126,
      "Ġknow": 1127,
      "Ġhaving": 1128,
      "Ġdece": 1129,
      "Ġmark": 1130,
      "Ġrequ": 1131,
      "Ġtit": 1132,
      "Ġjan": 1133,
      "aged": 1134,
      "Ġdue": 1135,
      "ern": 1136,
      "Ġvict": 1137,
      "ages": 1138,
      "cy": 1139,
      "ned": 1140,
      "Ġfur": 1141,
      "Ġequ": 1142,
      "Ġjuly": 1143,
      "uary": 1144,
      "Ġwom": 1145,
      "Ġappro": 1146,
      "aken": 1147,
      "raft": 1148,
      "rote": 1149,
      "Ġnovember": 1150,
      "Ġappear": 1151,
      "Ġmor": 1152,
      "ped": 1153,
      "Ġsen": 1154,
      "idge": 1155,
      "ored": 1156,
      "ague": 1157,
      "Ġvis": 1158,
      "Ġbelie": 1159,
      "avy": 1160,
      "Ġincre": 1161,
      "cent": 1162,
      "iving": 1163,
      "Ġla": 1164,
      "mer": 1165,
      "Ġpat": 1166,
      "Ġwater": 1167,
      "Ġamong": 1168,
      "Ġyork": 1169,
      "Ġvers": 1170,
      "akes": 1171,
      "Ġevent": 1172,
      "Ġapril": 1173,
      "arch": 1174,
      "Ġtop": 1175,
      "ffect": 1176,
      "Ġsevent": 1177,
      "Ġtimes": 1178,
      "Ġcompany": 1179,
      "ius": 1180,
      "Ġcame": 1181,
      "Ġdam": 1182,
      "Ġtake": 1183,
      "ales": 1184,
      "of": 1185,
      "Ġnever": 1186,
      "Ġfamily": 1187,
      "Ġche": 1188,
      "Ġriver": 1189,
      "Ġmust": 1190,
      "rent": 1191,
      "pend": 1192,
      "Ġval": 1193,
      "tempt": 1194,
      "Ġrom": 1195,
      "Ġcommon": 1196,
      "Ġcle": 1197,
      "itions": 1198,
      "Ġreview": 1199,
      "rist": 1200,
      "Ġang": 1201,
      "ony": 1202,
      "Ġcur": 1203,
      "Ġmonth": 1204,
      "Ġstory": 1205,
      "Ġstand": 1206,
      "Ġwind": 1207,
      "ov": 1208,
      "Ġdest": 1209,
      "Ġincluded": 1210,
      "how": 1211,
      "Ġce": 1212,
      "she": 1213,
      "Ġled": 1214,
      "Ġfore": 1215,
      "twenty": 1216,
      "Ġexper": 1217,
      "augh": 1218,
      "ps": 1219,
      "ax": 1220,
      "Ġvide": 1221,
      "Ġcentury": 1222,
      "Ġorder": 1223,
      "lu": 1224,
      "Ġalthough": 1225,
      "ilar": 1226,
      "ched": 1227,
      "Ġfriend": 1228,
      "Ġforce": 1229,
      "Ġnext": 1230,
      "Ġpark": 1231,
      "Ġtem": 1232,
      "ital": 1233,
      "Ġpresent": 1234,
      "Ġperform": 1235,
      "Ġcast": 1236,
      "Ġplayed": 1237,
      "Ġgod": 1238,
      "omin": 1239,
      "Ġwon": 1240,
      "Ġdecember": 1241,
      "ged": 1242,
      "Ġwrote": 1243,
      "ior": 1244,
      "Ġreal": 1245,
      "Ġintern": 1246,
      "read": 1247,
      "Ġjoin": 1248,
      "ically": 1249,
      "Ġeffect": 1250,
      "ball": 1251,
      "Ġcontr": 1252,
      "Ġwithin": 1253,
      "ined": 1254,
      "ets": 1255,
      "Ġcal": 1256,
      "Ġstru": 1257,
      "Ġtrack": 1258,
      "ered": 1259,
      "Ġstorm": 1260,
      "Ġeighteen": 1261,
      "Ġsold": 1262,
      "Ġide": 1263,
      "Ġjanuary": 1264,
      "Ġpost": 1265,
      "Ġrepl": 1266,
      "Ġsent": 1267,
      "Ġ-": 1268,
      "ried": 1269,
      "apan": 1270,
      "tter": 1271,
      "Ġclub": 1272,
      "Ġview": 1273,
      "Ġdescribed": 1274,
      "Ġgun": 1275,
      "ogr": 1276,
      "less": 1277,
      "Ġattempt": 1278,
      "most": 1279,
      "port": 1280,
      "Ġdifferent": 1281,
      "ached": 1282,
      "Ġprevious": 1283,
      "Ġdu": 1284,
      "ional": 1285,
      "Ġbus": 1286,
      "por": 1287,
      "Ġblack": 1288,
      "Ġpa": 1289,
      "Ġir": 1290,
      "ats": 1291,
      "ney": 1292,
      "Ġformer": 1293,
      "Ġauth": 1294,
      "bert": 1295,
      "Ġoriginal": 1296,
      "Ġnamed": 1297,
      "rodu": 1298,
      "ertain": 1299,
      "thir": 1300,
      "Ġlight": 1301,
      "when": 1302,
      "Ġdays": 1303,
      "Ġeas": 1304,
      "Ġless": 1305,
      "Ġside": 1306,
      "Ġant": 1307,
      "Ġra": 1308,
      "iod": 1309,
      "bru": 1310,
      "Ġorgan": 1311,
      "mb": 1312,
      "Ġvir": 1313,
      "iet": 1314,
      "lo": 1315,
      "Ġspecies": 1316,
      "Ġresp": 1317,
      "Ġyoun": 1318,
      "Ġaddition": 1319,
      "Ġsound": 1320,
      "'t": 1321,
      "ster": 1322,
      "Ġson": 1323,
      "Ġeuro": 1324,
      "Ġlate": 1325,
      "...": 1326,
      "ien": 1327,
      "unk": 1328,
      "ott": 1329,
      "Ġpoint": 1330,
      "ler": 1331,
      "rench": 1332,
      "Ġmove": 1333,
      "Ġoften": 1334,
      "Ġcommun": 1335,
      "Ġfew": 1336,
      "Ġjapan": 1337,
      "ple": 1338,
      "ser": 1339,
      "Ġphil": 1340,
      "tended": 1341,
      "Ġfle": 1342,
      "Ġfurther": 1343,
      "Ġdisc": 1344,
      "Ġgiven": 1345,
      "ider": 1346,
      "ount": 1347,
      "Ġthings": 1348,
      "Ġheld": 1349,
      "Ġbeh": 1350,
      "Ġpolit": 1351,
      "und": 1352,
      "ches": 1353,
      "Ġdivision": 1354,
      "Ġrad": 1355,
      "yal": 1356,
      "tr": 1357,
      "Ġsuper": 1358,
      "Ġfind": 1359,
      "bruary": 1360,
      "Ġvideo": 1361,
      "Ġcountry": 1362,
      "Ġleague": 1363,
      "Ġmembers": 1364,
      "ring": 1365,
      "eight": 1366,
      "ob": 1367,
      "Ġbill": 1368,
      "Ġperiod": 1369,
      "they": 1370,
      "Ġtele": 1371,
      "Ġsol": 1372,
      "ross": 1373,
      "Ġstar": 1374,
      "Ġchamp": 1375,
      "seven": 1376,
      "ards": 1377,
      "Ġmilit": 1378,
      "Ġer": 1379,
      "sc": 1380,
      "Ġsimilar": 1381,
      "aff": 1382,
      "forman": 1383,
      "not": 1384,
      "Ġinte": 1385,
      "Ġcy": 1386,
      "let": 1387,
      "Ġbas": 1388,
      "Ġestab": 1389,
      "however": 1390,
      "Ġtro": 1391,
      "isted": 1392,
      "Ġfebruary": 1393,
      "Ġresult": 1394,
      "Ġtoo": 1395,
      "Ġfire": 1396,
      "Ġinit": 1397,
      "Ġaward": 1398,
      "day": 1399,
      "ae": 1400,
      "Ġwant": 1401,
      "ator": 1402,
      "Ġred": 1403,
      "Ġplan": 1404,
      "oute": 1405,
      "oci": 1406,
      "els": 1407,
      "with": 1408,
      "enn": 1409,
      "ese": 1410,
      "Ġsum": 1411,
      "Ġseventeen": 1412,
      "ulation": 1413,
      "Ġarg": 1414,
      "ices": 1415,
      "there": 1416,
      "Ġbuilt": 1417,
      "Ġbody": 1418,
      "Ġperforman": 1419,
      "resent": 1420,
      "Ġchur": 1421,
      "Ġconcer": 1422,
      "Ġservice": 1423,
      "Ġlittle": 1424,
      "during": 1425,
      "mit": 1426,
      "Ġfree": 1427,
      "Ġmatch": 1428,
      "Ġbecome": 1429,
      "Ġchrist": 1430,
      "Ġeurope": 1431,
      "sequ": 1432,
      "idered": 1433,
      "Ġuniversity": 1434,
      "Ġve": 1435,
      "aster": 1436,
      "Ġrole": 1437,
      "Ġread": 1438,
      "Ġfact": 1439,
      "Ġwhite": 1440,
      "Ġfoot": 1441,
      "Ġconstru": 1442,
      "ham": 1443,
      "Ġinde": 1444,
      "ister": 1445,
      "while": 1446,
      "atic": 1447,
      "Ġfre": 1448,
      "Ġcross": 1449,
      "Ġanim": 1450,
      "Ġcontinued": 1451,
      "Ġyour": 1452,
      "Ġreason": 1453,
      "Ġstree": 1454,
      "que": 1455,
      "Ġmot": 1456,
      "ford": 1457,
      "Ġlocal": 1458,
      "side": 1459,
      "ots": 1460,
      "Ġtest": 1461,
      "Ġfather": 1462,
      "play": 1463,
      "Ġfrench": 1464,
      "Ġothers": 1465,
      "Ġtot": 1466,
      "ively": 1467,
      "Ġwent": 1468,
      "Ġprof": 1469,
      "Ġcir": 1470,
      "Ġclaim": 1471,
      "Ġnight": 1472,
      "gy": 1473,
      "Ġconsidered": 1474,
      "Ġauthor": 1475,
      "Ġgave": 1476,
      "Ġbir": 1477,
      "Ġmer": 1478,
      "Ġje": 1479,
      "omet": 1480,
      "ying": 1481,
      "iness": 1482,
      "alk": 1483,
      "line": 1484,
      "Ġroute": 1485,
      "Ġrelease": 1486,
      "iety": 1487,
      "Ġparticular": 1488,
      "Ġdoes": 1489,
      "Ġassoci": 1490,
      "Ġtre": 1491,
      "ove": 1492,
      "Ġneed": 1493,
      "Ġbased": 1494,
      "Ġput": 1495,
      "bs": 1496,
      "Ġrock": 1497,
      "Ġword": 1498,
      "Ġpresident": 1499,
      "ropical": 1500,
      "ones": 1501,
      "Ġwat": 1502,
      "Ġhig": 1503,
      "Ġmoved": 1504,
      "Ġhuman": 1505,
      "craft": 1506,
      "pite": 1507,
      "Ġlow": 1508,
      "Ġru": 1509,
      "ways": 1510,
      "Ġhalf": 1511,
      "Ġcourt": 1512,
      "alth": 1513,
      "Ġpress": 1514,
      "ops": 1515,
      "Ġstrong": 1516,
      "Ġaway": 1517,
      "gen": 1518,
      "ief": 1519,
      "ances": 1520,
      "gress": 1521,
      "estern": 1522,
      "Ġlim": 1523,
      "ize": 1524,
      "Ġchang": 1525,
      "gether": 1526,
      "Ġlost": 1527,
      "Ġposition": 1528,
      "selves": 1529,
      "ival": 1530,
      "Ġlove": 1531,
      "Ġweek": 1532,
      "Ġcomb": 1533,
      "gram": 1534,
      "Ġplayer": 1535,
      "ues": 1536,
      "Ġlat": 1537,
      "Ġparty": 1538,
      "cut": 1539,
      "Ġchildren": 1540,
      "fer": 1541,
      "Ġyoung": 1542,
      "Ġho": 1543,
      "Ġhur": 1544,
      "ison": 1545,
      "Ġdecl": 1546,
      "Ġthought": 1547,
      "here": 1548,
      "Ġfield": 1549,
      "Ġimport": 1550,
      "Ġhon": 1551,
      "Ġinvol": 1552,
      "Ġground": 1553,
      "Ġchurch": 1554,
      "Ġforces": 1555,
      "ours": 1556,
      "ably": 1557,
      "ggest": 1558,
      "Ġfac": 1559,
      "ailed": 1560,
      "Ġnat": 1561,
      "Ġeither": 1562,
      "Ġengland": 1563,
      "Ġinflu": 1564,
      "Ġprote": 1565,
      "Ġhistory": 1566,
      "Ġget": 1567,
      "Ġcond": 1568,
      "elt": 1569,
      "Ġtech": 1570,
      "Ġships": 1571,
      "Ġrepresent": 1572,
      "Ġconv": 1573,
      "ument": 1574,
      "Ġvol": 1575,
      "Ġlab": 1576,
      "Ġsuggest": 1577,
      "Ġage": 1578,
      "Ġfall": 1579,
      "Ġwilliam": 1580,
      "Ġsit": 1581,
      "Ġsongs": 1582,
      "go": 1583,
      "Ġmilitary": 1584,
      "Ġcirc": 1585,
      "fif": 1586,
      "vision": 1587,
      "Ġroyal": 1588,
      "sp": 1589,
      "Ġhistor": 1590,
      "Ġversion": 1591,
      "Ġcounty": 1592,
      "Ġnature": 1593,
      "iment": 1594,
      "Ġwritten": 1595,
      "ges": 1596,
      "ribut": 1597,
      "Ġfort": 1598,
      "ploy": 1599,
      "Ġfun": 1600,
      "Ġproduction": 1601,
      "Ġgeor": 1602,
      "Ġchart": 1603,
      "Ġreturned": 1604,
      "Ġlook": 1605,
      "Ġtrad": 1606,
      "ondon": 1607,
      "ript": 1608,
      "Ġonce": 1609,
      "raw": 1610,
      "Ġprogram": 1611,
      "Ġlive": 1612,
      "Ġbur": 1613,
      "Ġbuilding": 1614,
      "Ġinterest": 1615,
      "Ġdou": 1616,
      "Ġannoun": 1617,
      "Ġnineteen": 1618,
      "ality": 1619,
      "Ġsea": 1620,
      "Ġenglish": 1621,
      "Ġarch": 1622,
      "ead": 1623,
      "ases": 1624,
      "Ġjud": 1625,
      "pet": 1626,
      "Ġgold": 1627,
      "roy": 1628,
      "Ġpra": 1629,
      "Ġmaking": 1630,
      "Ġtotal": 1631,
      "Ġcontrol": 1632,
      "ories": 1633,
      ",\"": 1634,
      "ology": 1635,
      "aign": 1636,
      "Ġcome": 1637,
      "Ġchampions": 1638,
      "Ġsty": 1639,
      "Ġstated": 1640,
      "Ġmiss": 1641,
      "ering": 1642,
      "Ġlondon": 1643,
      "like": 1644,
      "rew": 1645,
      "oph": 1646,
      "Ġill": 1647,
      "acc": 1648,
      "Ġstation": 1649,
      "ograph": 1650,
      "ald": 1651,
      "ened": 1652,
      "thirty": 1653,
      "Ġhy": 1654,
      "Ġwomen": 1655,
      "Ġstreet": 1656,
      "Ġlevel": 1657,
      "Ġtaken": 1658,
      "xim": 1659,
      "ship": 1660,
      "now": 1661,
      "Ġhor": 1662,
      "dom": 1663,
      "Ġclose": 1664,
      "Ġcoast": 1665,
      "Ġreported": 1666,
      "Ġever": 1667,
      "Ġcase": 1668,
      "Ġdev": 1669,
      "Ġrail": 1670,
      "Ġproduced": 1671,
      "Ġearl": 1672,
      "Ġaccording": 1673,
      "Ġarri": 1674,
      "fic": 1675,
      "Ġfav": 1676,
      "Ġdirect": 1677,
      "Ġproject": 1678,
      "ceed": 1679,
      "Ġtogether": 1680,
      "Ġmich": 1681,
      "Ġinternational": 1682,
      "Ġable": 1683,
      "his": 1684,
      "ma": 1685,
      "iber": 1686,
      "ery": 1687,
      "Ġsal": 1688,
      "Ġpopular": 1689,
      "Ġpublished": 1690,
      "Ġfight": 1691,
      "Ġfull": 1692,
      "get": 1693,
      "mon": 1694,
      "Ġbegin": 1695,
      "Ġvo": 1696,
      "Ġlet": 1697,
      "then": 1698,
      "Ġrese": 1699,
      "Ġdevelopment": 1700,
      "Ġcapt": 1701,
      "aring": 1702,
      "Ġly": 1703,
      "ille": 1704,
      "str": 1705,
      "Ġzero": 1706,
      "Ġelect": 1707,
      "Ġinclude": 1708,
      "Ġhen": 1709,
      "off": 1710,
      "although": 1711,
      "Ġdisco": 1712,
      "itive": 1713,
      "Ġver": 1714,
      "Ġhit": 1715,
      "ai": 1716,
      "Ġusing": 1717,
      "Ġseen": 1718,
      "ries": 1719,
      "Ġfront": 1720,
      "men": 1721,
      "Ġmass": 1722,
      "fered": 1723,
      "Ġcanad": 1724,
      "Ġobser": 1725,
      "Ġproper": 1726,
      "Ġmoun": 1727,
      "Ġbroad": 1728,
      "Ġhold": 1729,
      "Ġdepart": 1730,
      "Ġdon": 1731,
      "Ġyet": 1732,
      "Ġbase": 1733,
      "Ġtropical": 1734,
      "Ġwall": 1735,
      "Ġsun": 1736,
      "Ġprim": 1737,
      "Ġpain": 1738,
      "vered": 1739,
      "Ġask": 1740,
      "Ġspecial": 1741,
      "Ġden": 1742,
      "Ġhighway": 1743,
      "ray": 1744,
      "Ġrather": 1745,
      "Ġitself": 1746,
      "ream": 1747,
      "osp": 1748,
      "ama": 1749,
      "Ġhard": 1750,
      "yl": 1751,
      "Ġthemselves": 1752,
      "Ġwestern": 1753,
      "Ġperformance": 1754,
      "Ġthink": 1755,
      "Ġrecorded": 1756,
      "Ġcop": 1757,
      "Ġcritic": 1758,
      "Ġtelevision": 1759,
      "ex": 1760,
      "Ġwhom": 1761,
      "Ġcampaign": 1762,
      "ington": 1763,
      "no": 1764,
      "Ġcommit": 1765,
      "ensive": 1766,
      "Ġcareer": 1767,
      "Ġhom": 1768,
      "ference": 1769,
      "sev": 1770,
      "Ġvill": 1771,
      "Ġoccur": 1772,
      "Ġcoll": 1773,
      "Ġintrodu": 1774,
      "set": 1775,
      "Ġdied": 1776,
      "Ġremained": 1777,
      "Ġdav": 1778,
      "Ġsat": 1779,
      "Ġmind": 1780,
      "Ġsaw": 1781,
      "Ġrelations": 1782,
      "Ġcat": 1783,
      "Ġconne": 1784,
      "Ġtitle": 1785,
      "Ġfell": 1786,
      "my": 1787,
      "Ġaud": 1788,
      "Ġcentral": 1789,
      "Ġmean": 1790,
      "Ġdestroy": 1791,
      "pec": 1792,
      "Ġvarious": 1793,
      "ising": 1794,
      "Ġmeet": 1795,
      "Ġlist": 1796,
      "tained": 1797,
      "Ġthus": 1798,
      "nam": 1799,
      "Ġple": 1800,
      "ape": 1801,
      "Ġmonths": 1802,
      "cil": 1803,
      "Ġcharacters": 1804,
      "Ġhelp": 1805,
      "Ġexpress": 1806,
      "den": 1807,
      "Ġft": 1808,
      "Ġsquad": 1809,
      "emy": 1810,
      "Ġhun": 1811,
      "Ġwood": 1812,
      "stand": 1813,
      "Ġsil": 1814,
      "Ġbrother": 1815,
      "Ġhapp": 1816,
      "ls": 1817,
      "iers": 1818,
      "Ġofficial": 1819,
      "Ġaction": 1820,
      "idence": 1821,
      "Ġacross": 1822,
      "Ġbecom": 1823,
      "erc": 1824,
      "eral": 1825,
      "Ġfelt": 1826,
      "Ġcost": 1827,
      "acy": 1828,
      "ivid": 1829,
      "aves": 1830,
      "Ġreached": 1831,
      "orts": 1832,
      "aps": 1833,
      "Ġ)": 1834,
      "Ġquest": 1835,
      "Ġoffice": 1836,
      "Ġeff": 1837,
      "Ġsignific": 1838,
      "Ġshall": 1839,
      "Ġexist": 1840,
      "Ġpolitical": 1841,
      "mar": 1842,
      "Ġsouthern": 1843,
      "Ġjack": 1844,
      "ze": 1845,
      "Ġrespect": 1846,
      "Ġbrought": 1847,
      "Ġfollowed": 1848,
      "Ġesc": 1849,
      "over": 1850,
      "Ġcenter": 1851,
      "Ġmight": 1852,
      "Ġaircraft": 1853,
      "Ġciv": 1854,
      "Ġrich": 1855,
      "Ġworks": 1856,
      "Ġtrave": 1857,
      "aces": 1858,
      "tered": 1859,
      "Ġbom": 1860,
      "Ġball": 1861,
      "Ġcut": 1862,
      "Ġcult": 1863,
      "Ġaustralia": 1864,
      "Ġrace": 1865,
      "Ġprocess": 1866,
      "ert": 1867,
      "iting": 1868,
      "Ġdiffic": 1869,
      "Ġdeveloped": 1870,
      "Ġpoints": 1871,
      "Ġgive": 1872,
      "Ġhill": 1873,
      "Ġcreated": 1874,
      "Ġpract": 1875,
      "Ġplayers": 1876,
      "Ġtechn": 1877,
      "Ġnon": 1878,
      "Ġchampionship": 1879,
      "Ġearth": 1880,
      "lished": 1881,
      "Ġfem": 1882,
      "Ġnoted": 1883,
      "Ġkilled": 1884,
      "Ġsubject": 1885,
      "oney": 1886,
      "Ġtur": 1887,
      "Ġhurric": 1888,
      "Ġmiles": 1889,
      "ds": 1890,
      "Ġmad": 1891,
      "mp": 1892,
      "Ġbow": 1893,
      "Ġseem": 1894,
      "Ġstri": 1895,
      "Ġthroughout": 1896,
      "Ġinstead": 1897,
      "ming": 1898,
      "ample": 1899,
      "Ġannounced": 1900,
      "Ġpossible": 1901,
      "medi": 1902,
      "Ġsel": 1903,
      "Ġcomplete": 1904,
      "erv": 1905,
      "Ġareas": 1906,
      "rict": 1907,
      "bur": 1908,
      "Ġcam": 1909,
      "Ġgrand": 1910,
      "Ġobject": 1911,
      "bor": 1912,
      "Ġhall": 1913,
      "Ġround": 1914,
      "Ġsuccessful": 1915,
      "cture": 1916,
      "Ġpromot": 1917,
      "Ġbat": 1918,
      "Ġstat": 1919,
      "Ġbetter": 1920,
      "ogn": 1921,
      "Ġindust": 1922,
      "Ġentire": 1923,
      "ael": 1924,
      "gest": 1925,
      "head": 1926,
      "cast": 1927,
      "Ġpal": 1928,
      "Ġperformed": 1929,
      "lect": 1930,
      "west": 1931,
      "Ġgrow": 1932,
      "val": 1933,
      "ination": 1934,
      "Ġsoon": 1935,
      "Ġhot": 1936,
      "field": 1937,
      "Ġserved": 1938,
      "Ġcertain": 1939,
      "Ġissu": 1940,
      "olution": 1941,
      "Ġconsider": 1942,
      "Ġinj": 1943,
      "Ġheavy": 1944,
      "ators": 1945,
      "forty": 1946,
      "Ġmother": 1947,
      "Ġenc": 1948,
      "Ġaver": 1949,
      "Ġbusiness": 1950,
      "Ġpen": 1951,
      "Ġtowards": 1952,
      "Ġpit": 1953,
      "Ġsan": 1954,
      "ration": 1955,
      "eigh": 1956,
      "Ġtherefore": 1957,
      "Ġbridge": 1958,
      "Ġsa": 1959,
      "utes": 1960,
      "Ġappeared": 1961,
      "Ġneg": 1962,
      "Ġident": 1963,
      "Ġfeet": 1964,
      "ude": 1965,
      "ush": 1966,
      "Ġimpro": 1967,
      "Ġleast": 1968,
      "Ġmix": 1969,
      "Ġdet": 1970,
      "Ġtreat": 1971,
      "Ġwriting": 1972,
      "dle": 1973,
      "int": 1974,
      "Ġindivid": 1975,
      "Ġamerica": 1976,
      "Ġey": 1977,
      "pr": 1978,
      "uck": 1979,
      "Ġnorthern": 1980,
      "Ġcollege": 1981,
      "Ġmodern": 1982,
      "Ġdisp": 1983,
      "reg": 1984,
      "Ġpred": 1985,
      "ana": 1986,
      "Ġredu": 1987,
      "ocr": 1988,
      "Ġestablished": 1989,
      "reek": 1990,
      "aval": 1991,
      "Ġpot": 1992,
      "des": 1993,
      "according": 1994,
      "nes": 1995,
      "Ġmm": 1996,
      "osition": 1997,
      "Ġvi": 1998,
      "Ġtell": 1999,
      "Ġinform": 2000,
      "Ġcaused": 2001,
      "Ġadded": 2002,
      "Ġkind": 2003,
      "Ġthing": 2004,
      "Ġmember": 2005,
      "Ġmi": 2006,
      "Ġnecess": 2007,
      "Ġdebut": 2008,
      "Ġinvest": 2009,
      "Ġdeter": 2010,
      "incip": 2011,
      "ox": 2012,
      "Ġdi": 2013,
      "Ġwhether": 2014,
      "Ġtor": 2015,
      "Ġsepar": 2016,
      "Ġham": 2017,
      "Ġpriv": 2018,
      "Ġbehind": 2019,
      "ades": 2020,
      "that": 2021,
      "Ġfig": 2022,
      "Ġprofess": 2023,
      "Ġaff": 2024,
      "fifty": 2025,
      "ization": 2026,
      "Ġmur": 2027,
      "Ġformed": 2028,
      "Ġsignificant": 2029,
      "Ġjames": 2030,
      "Ġeventually": 2031,
      "Ġcivil": 2032,
      "Ġfa": 2033,
      "ublic": 2034,
      "Ġmater": 2035,
      "Ġfleet": 2036,
      "Ġactiv": 2037,
      "Ġlos": 2038,
      "Ġimportant": 2039,
      "igned": 2040,
      "Ġdecided": 2041,
      "new": 2042,
      "Ġreve": 2043,
      "Ġlear": 2044,
      "Ġkingdom": 2045,
      "Ġhurricane": 2046,
      "Ġengine": 2047,
      "Ġrul": 2048,
      "Ġrange": 2049,
      "Ġemp": 2050,
      "angu": 2051,
      "Ġcover": 2052,
      "Ġexe": 2053,
      "Ġach": 2054,
      "Ġaccom": 2055,
      "aly": 2056,
      "Ġjapanese": 2057,
      "Ġwhole": 2058,
      "Ġfourth": 2059,
      "Ġsaying": 2060,
      "odes": 2061,
      "Ġmult": 2062,
      "Ġstarted": 2063,
      "Ġfootball": 2064,
      "Ġmal": 2065,
      "cing": 2066,
      "these": 2067,
      "Ġregard": 2068,
      "Ġsuff": 2069,
      "Ġafric": 2070,
      "Ġsurv": 2071,
      "Ġsus": 2072,
      "view": 2073,
      "wood": 2074,
      "Ġplat": 2075,
      "pre": 2076,
      "Ġexample": 2077,
      "Ġur": 2078,
      "Ġfeatures": 2079,
      "Ġgar": 2080,
      "Ġprem": 2081,
      "Ġhost": 2082,
      "Ġcho": 2083,
      "conom": 2084,
      "Ġcrew": 2085,
      "Ġparts": 2086,
      "Ġprincip": 2087,
      "Ġindepend": 2088,
      "Ġalmost": 2089,
      "Ġcommission": 2090,
      "Ġbig": 2091,
      "asion": 2092,
      "Ġalways": 2093,
      "Ġcreat": 2094,
      "Ġappoin": 2095,
      "fl": 2096,
      "Ġstage": 2097,
      "aur": 2098,
      "Ġgir": 2099,
      "Ġwide": 2100,
      "Ġemploy": 2101,
      "gar": 2102,
      "Ġaustralian": 2103,
      "Ġwhose": 2104,
      "Ġmagaz": 2105,
      "Ġaccept": 2106,
      "Ġkeep": 2107,
      "Ġloss": 2108,
      "Ġnovel": 2109,
      "Ġhol": 2110,
      "ense": 2111,
      "Ġlocated": 2112,
      "Ġwife": 2113,
      "Ġcompleted": 2114,
      "ows": 2115,
      "Ġregion": 2116,
      "Ġsite": 2117,
      "Ġcondu": 2118,
      "Ġproble": 2119,
      "hest": 2120,
      "asing": 2121,
      "Ġspace": 2122,
      "Ġstyle": 2123,
      "ask": 2124,
      "Ġreb": 2125,
      "Ġabs": 2126,
      "Ġeduc": 2127,
      "ready": 2128,
      "Ġcomment": 2129,
      "Ġfeel": 2130,
      "Ġdirector": 2131,
      "Ġidea": 2132,
      "Ġchange": 2133,
      "Ġnothing": 2134,
      "ninety": 2135,
      "Ġrank": 2136,
      "some": 2137,
      "Ġallowed": 2138,
      "ength": 2139,
      "Ġabove": 2140,
      "Ġpopulation": 2141,
      "Ġconstruction": 2142,
      "ug": 2143,
      "Ġnar": 2144,
      "Ġgeorge": 2145,
      "wer": 2146,
      "year": 2147,
      "Ġsubsequ": 2148,
      "rison": 2149,
      "Ġx": 2150,
      "Ġquar": 2151,
      "seventy": 2152,
      "Ġvictory": 2153,
      "Ġdone": 2154,
      "Ġquick": 2155,
      "Ġsecret": 2156,
      "Ġvot": 2157,
      "Ġenough": 2158,
      "--": 2159,
      "Ġtroops": 2160,
      "ara": 2161,
      "Ġchief": 2162,
      "Ġpeak": 2163,
      "enes": 2164,
      "Ġopened": 2165,
      "ager": 2166,
      "cher": 2167,
      "Ġphys": 2168,
      "Ġrh": 2169,
      "Ġfed": 2170,
      "cle": 2171,
      "Ġprep": 2172,
      "Ġjour": 2173,
      "asure": 2174,
      "Ġcouncil": 2175,
      "Ġaut": 2176,
      "icated": 2177,
      "Ġoriginally": 2178,
      "Ġprovided": 2179,
      "Ġeconom": 2180,
      "Ġmaterial": 2181,
      "bl": 2182,
      "Ġfut": 2183,
      "Ġdamage": 2184,
      "Ġreach": 2185,
      "Ġroom": 2186,
      "Ġcritics": 2187,
      "Ġclear": 2188,
      "Ġcup": 2189,
      "Ġplaced": 2190,
      "Ġlack": 2191,
      "Ġguns": 2192,
      "Ġcause": 2193,
      "outh": 2194,
      "Ġsocial": 2195,
      "Ġinn": 2196,
      "Ġgenerally": 2197,
      "Ġworked": 2198,
      "erous": 2199,
      "Ġcannot": 2200,
      "Ġweeks": 2201,
      "umb": 2202,
      "ression": 2203,
      "Ġleading": 2204,
      "anch": 2205,
      "Ġfund": 2206,
      "rick": 2207,
      "Ġdri": 2208,
      "ption": 2209,
      "Ġcru": 2210,
      "Ġsour": 2211,
      "Ġeastern": 2212,
      "Ġbrown": 2213,
      "Ġrepublic": 2214,
      "iding": 2215,
      "itar": 2216,
      "Ġtru": 2217,
      "Ġwanted": 2218,
      "Ġvoc": 2219,
      "Ġscene": 2220,
      "Ġnatural": 2221,
      "back": 2222,
      "Ġalready": 2223,
      "sixty": 2224,
      "Ġsam": 2225,
      "Ġworking": 2226,
      "arily": 2227,
      "hel": 2228,
      "Ġder": 2229,
      "Ġrelationship": 2230,
      "Ġpast": 2231,
      "Ġresul": 2232,
      "ential": 2233,
      "ino": 2234,
      "dered": 2235,
      "ata": 2236,
      "Ġrecogn": 2237,
      "Ġpay": 2238,
      "board": 2239,
      "Ġmiddle": 2240,
      "Ġbreak": 2241,
      "ns": 2242,
      "Ġthom": 2243,
      "Ġwash": 2244,
      "reng": 2245,
      "Ġrelig": 2246,
      "Ġarr": 2247,
      "from": 2248,
      "Ġmel": 2249,
      "Ġfrance": 2250,
      "iction": 2251,
      "usion": 2252,
      "nded": 2253,
      "Ġimmedi": 2254,
      "Ġjoined": 2255,
      "iff": 2256,
      "Ġindian": 2257,
      "Ġunion": 2258,
      "Ġevents": 2259,
      "Ġgoal": 2260,
      "Ġsociety": 2261,
      "Ġtrue": 2262,
      "Ġtradition": 2263,
      "ometimes": 2264,
      "fall": 2265,
      "Ġplaying": 2266,
      "ica": 2267,
      "Ġbay": 2268,
      "pected": 2269,
      "Ġlaun": 2270,
      "ishing": 2271,
      "Ġsomething": 2272,
      "anks": 2273,
      "Ġdark": 2274,
      "Ġruns": 2275,
      "Ġpassed": 2276,
      "lin": 2277,
      "Ġmc": 2278,
      "Ġestim": 2279,
      "cts": 2280,
      "Ġtraining": 2281,
      "Ġgreen": 2282,
      "Ġtou": 2283,
      "Ġale": 2284,
      "Ġheart": 2285,
      "Ġavail": 2286,
      "erson": 2287,
      "action": 2288,
      "Ġscored": 2289,
      "imin": 2290,
      "Ġbad": 2291,
      "Ġtyp": 2292,
      "reen": 2293,
      "aled": 2294,
      "Ġradio": 2295,
      "aded": 2296,
      "Ġdeal": 2297,
      "istic": 2298,
      "well": 2299,
      "uses": 2300,
      "Ġdro": 2301,
      "Ġfeatured": 2302,
      "Ġmoney": 2303,
      "ios": 2304,
      "antic": 2305,
      "Ġsex": 2306,
      "Ġtold": 2307,
      "Ġtaking": 2308,
      "Ġbelieved": 2309,
      "Ġregular": 2310,
      "ha": 2311,
      "Ġcompet": 2312,
      "Ġpie": 2313,
      "Ġnavy": 2314,
      "lling": 2315,
      "Ġroman": 2316,
      "ids": 2317,
      "Ġadm": 2318,
      "Ġsummer": 2319,
      "tim": 2320,
      "Ġrain": 2321,
      "Ġcurrent": 2322,
      "Ġbal": 2323,
      "Ġbrig": 2324,
      "Ġrap": 2325,
      "ky": 2326,
      "Ġrecords": 2327,
      "Ġaverage": 2328,
      "Ġboard": 2329,
      "Ġdavid": 2330,
      "Ġmagazine": 2331,
      "Ġwords": 2332,
      "face": 2333,
      "Ġhere": 2334,
      "Ġfoc": 2335,
      "Ġsele": 2336,
      "aper": 2337,
      "Ġdespite": 2338,
      "Ġself": 2339,
      "aughter": 2340,
      "Ġren": 2341,
      "Ġlangu": 2342,
      "Ġthreat": 2343,
      "Ġber": 2344,
      "Ġhours": 2345,
      "Ġgoing": 2346,
      "ification": 2347,
      "Ġprot": 2348,
      "lled": 2349,
      "Ġstudio": 2350,
      "oring": 2351,
      "sue": 2352,
      "Ġfriends": 2353,
      "jo": 2354,
      "Ġtar": 2355,
      "Ġstone": 2356,
      "Ġinfant": 2357,
      "Ġturned": 2358,
      "Ġassist": 2359,
      "Ġnomin": 2360,
      "reed": 2361,
      "ico": 2362,
      "Ġangel": 2363,
      "time": 2364,
      "Ġparticip": 2365,
      "Ġforced": 2366,
      "pro": 2367,
      "ences": 2368,
      "Ġul": 2369,
      "ency": 2370,
      "Ġcolon": 2371,
      "Ġawards": 2372,
      "Ġviol": 2373,
      "Ġwinds": 2374,
      "Ġruss": 2375,
      "Ġdifficult": 2376,
      "Ġlou": 2377,
      "Ġsquadron": 2378,
      "ago": 2379,
      "Ġfuture": 2380,
      "Ġinvolved": 2381,
      "hib": 2382,
      "uel": 2383,
      "Ġflight": 2384,
      "eighty": 2385,
      "Ġspir": 2386,
      "Ġcit": 2387,
      "Ġbeginning": 2388,
      "Ġbattal": 2389,
      "round": 2390,
      "Ġqueen": 2391,
      "Ġcaptain": 2392,
      "Ġlength": 2393,
      "Ġstop": 2394,
      "Ġborn": 2395,
      "Ġdead": 2396,
      "Ġasked": 2397,
      "Ġdesigned": 2398,
      "ological": 2399,
      "Ġhighest": 2400,
      "mat": 2401,
      "Ġfinished": 2402,
      "Ġconstit": 2403,
      "ta": 2404,
      "Ġreplaced": 2405,
      "Ġgreater": 2406,
      "ique": 2407,
      "ipp": 2408,
      "Ġrecording": 2409,
      "isl": 2410,
      "Ġstreng": 2411,
      "Ġcycl": 2412,
      "Ġinitially": 2413,
      "Ġstaff": 2414,
      "tee": 2415,
      "Ġelements": 2416,
      "Ġpan": 2417,
      "Ġshot": 2418,
      "Ġappl": 2419,
      "Ġinsp": 2420,
      "Ġfly": 2421,
      "Ġdeb": 2422,
      "airs": 2423,
      "Ġmountain": 2424,
      "ledge": 2425,
      "Ġappearance": 2426,
      "Ġexcept": 2427,
      "wor": 2428,
      "Ġmeans": 2429,
      "Ġopening": 2430,
      "Ġspeed": 2431,
      "ibility": 2432,
      "Ġgrad": 2433,
      "ateg": 2434,
      "Ġhenry": 2435,
      "Ġwr": 2436,
      "Ġsubst": 2437,
      "Ġlower": 2438,
      "Ġgrant": 2439,
      "Ġadmin": 2440,
      "Ġbeg": 2441,
      "key": 2442,
      "cutive": 2443,
      "Ġrob": 2444,
      "Ġmph": 2445,
      "Ġexperience": 2446,
      "Ġacqu": 2447,
      "Ġwashington": 2448,
      "ued": 2449,
      "sy": 2450,
      "Ġdan": 2451,
      "Ġlay": 2452,
      "Ġminutes": 2453,
      "Ġlu": 2454,
      "Ġearlier": 2455,
      "ula": 2456,
      "aker": 2457,
      "ises": 2458,
      "Ġnews": 2459,
      "ires": 2460,
      "Ġsequ": 2461,
      "ville": 2462,
      "Ġstep": 2463,
      "icle": 2464,
      "Ġlines": 2465,
      "Ġtransport": 2466,
      "Ġbeat": 2467,
      "Ġtrib": 2468,
      "Ġcommunity": 2469,
      "Ġanc": 2470,
      "nding": 2471,
      "Ġvirt": 2472,
      "eth": 2473,
      "vere": 2474,
      "alled": 2475,
      "Ġordered": 2476,
      "Ġpolice": 2477,
      "Ġrefer": 2478,
      "Ġachie": 2479,
      "Ġincreased": 2480,
      "iation": 2481,
      "anned": 2482,
      "Ġavailable": 2483,
      "Ġhealth": 2484,
      "rief": 2485,
      "Ġpraised": 2486,
      "Ġhous": 2487,
      "ume": 2488,
      "oon": 2489,
      "Ġmichael": 2490,
      "Ġprior": 2491,
      "Ġbi": 2492,
      "can": 2493,
      "Ġsometimes": 2494,
      "Ġprob": 2495,
      "Ġfilms": 2496,
      "Ġended": 2497,
      "Ġguard": 2498,
      "Ġparticularly": 2499,
      "thod": 2500,
      "Ġrequired": 2501,
      "Ġspan": 2502,
      "pecially": 2503,
      "Ġpercent": 2504,
      "Ġlatter": 2505,
      "Ġord": 2506,
      "rian": 2507,
      "Ġbring": 2508,
      "ung": 2509,
      "Ġrespons": 2510,
      "Ġliving": 2511,
      "anded": 2512,
      "Ġscore": 2513,
      "Ġinstit": 2514,
      "Ġcourse": 2515,
      "agon": 2516,
      "Ġpil": 2517,
      "Ġcarried": 2518,
      "Ġoutside": 2519,
      "vir": 2520,
      "Ġeuropean": 2521,
      "Ġamb": 2522,
      "more": 2523,
      "Ġassociation": 2524,
      "using": 2525,
      "Ġinfantry": 2526,
      "Ġox": 2527,
      "Ġunits": 2528,
      "Ġgot": 2529,
      "ift": 2530,
      "Ġwoman": 2531,
      "itor": 2532,
      "Ġfood": 2533,
      "Ġcred": 2534,
      "Ġuk": 2535,
      "Ġquestion": 2536,
      "Ġphilos": 2537,
      "Ġhorse": 2538,
      "use": 2539,
      "iforn": 2540,
      "Ġlargest": 2541,
      "aint": 2542,
      "Ġcas": 2543,
      "aries": 2544,
      "Ġconcept": 2545,
      "Ġkey": 2546,
      "Ġpositive": 2547,
      "Ġboy": 2548,
      "Ġopin": 2549,
      "theast": 2550,
      "Ġterrit": 2551,
      "Ġmovement": 2552,
      "Ġscience": 2553,
      "Ġresearch": 2554,
      "Ġmac": 2555,
      "Ġoperation": 2556,
      "Ġwil": 2557,
      "follow": 2558,
      "twork": 2559,
      "Ġspent": 2560,
      "Ġstudy": 2561,
      "pped": 2562,
      "Ġliber": 2563,
      "Ġmart": 2564,
      "Ġpoor": 2565,
      "enth": 2566,
      "aut": 2567,
      "bed": 2568,
      "ributed": 2569,
      "Ġvirgin": 2570,
      "oke": 2571,
      "Ġsection": 2572,
      "Ġdeep": 2573,
      "Ġpaul": 2574,
      "Ġlake": 2575,
      "Ġfit": 2576,
      "nal": 2577,
      "pper": 2578,
      "Ġmary": 2579,
      "Ġrights": 2580,
      "Ġdraw": 2581,
      "ida": 2582,
      "Ġhop": 2583,
      "ession": 2584,
      "writ": 2585,
      "Ġremain": 2586,
      "Ġrobert": 2587,
      "oo": 2588,
      "ressed": 2589,
      "Ġoccup": 2590,
      "Ġbey": 2591,
      "Ġsense": 2592,
      "Ġacad": 2593,
      "Ġprevent": 2594,
      "ston": 2595,
      "bar": 2596,
      "tt": 2597,
      "Ġsoldiers": 2598,
      "ror": 2599,
      "ership": 2600,
      "Ġasse": 2601,
      "Ġanti": 2602,
      "Ġlonger": 2603,
      "where": 2604,
      "Ġcommerc": 2605,
      "Ġfailed": 2606,
      "Ġcaliforn": 2607,
      "Ġlord": 2608,
      "Ġenemy": 2609,
      "mitted": 2610,
      "ander": 2611,
      "Ġdiscuss": 2612,
      "Ġtheat": 2613,
      "acted": 2614,
      "Ġchap": 2615,
      "Ġpreviously": 2616,
      "Ġcompl": 2617,
      "Ġalex": 2618,
      "ability": 2619,
      "Ġmedia": 2620,
      "Ġcastle": 2621,
      "Ġatl": 2622,
      "ilities": 2623,
      "ste": 2624,
      "Ġsoul": 2625,
      "Ġze": 2626,
      "mal": 2627,
      "Ġface": 2628,
      "Ġprison": 2629,
      "following": 2630,
      "Ġarrived": 2631,
      "itude": 2632,
      "Ġagree": 2633,
      "Ġgro": 2634,
      "inct": 2635,
      "Ġmakes": 2636,
      "Ġcorn": 2637,
      "Ġjer": 2638,
      "down": 2639,
      "Ġmov": 2640,
      "Ġfrequ": 2641,
      "ny": 2642,
      "ki": 2643,
      "Ġmarket": 2644,
      "apt": 2645,
      "Ġtim": 2646,
      "ores": 2647,
      "under": 2648,
      "Ġcentre": 2649,
      "Ġinterview": 2650,
      "ground": 2651,
      "Ġminor": 2652,
      "Ġsigned": 2653,
      "Ġha": 2654,
      "Ġou": 2655,
      "Ġremo": 2656,
      "Ġreviews": 2657,
      "Ġfemale": 2658,
      "Ġprivate": 2659,
      "Ġfear": 2660,
      "Ġvoice": 2661,
      "what": 2662,
      "Ġcontract": 2663,
      "Ġevidence": 2664,
      "Ġsquare": 2665,
      "Ġespecially": 2666,
      "Ġmusical": 2667,
      "Ġdirected": 2668,
      "Ġstars": 2669,
      "Ġmis": 2670,
      "Ġflood": 2671,
      "Ġfail": 2672,
      "Ġdomin": 2673,
      "Ġentertain": 2674,
      "Ġcalifornia": 2675,
      "Ġtransfer": 2676,
      "Ġmatter": 2677,
      "ga": 2678,
      "Ġdoc": 2679,
      "ully": 2680,
      "Ġpow": 2681,
      "Ġtex": 2682,
      "Ġcanada": 2683,
      "Ġstay": 2684,
      "sey": 2685,
      "Ġleave": 2686,
      "Ġsens": 2687,
      "despite": 2688,
      "Ġben": 2689,
      "Ġblood": 2690,
      "Ġfer": 2691,
      "ching": 2692,
      "Ġquickly": 2693,
      "Ġinvestig": 2694,
      "Ġphot": 2695,
      "Ġscott": 2696,
      "Ġhigher": 2697,
      "standing": 2698,
      "gu": 2699,
      "Ġlie": 2700,
      "Ġvictor": 2701,
      "ele": 2702,
      "Ġsitu": 2703,
      "Ġcommittee": 2704,
      "Ġadditional": 2705,
      "ams": 2706,
      "Ġintroduced": 2707,
      "ties": 2708,
      ".,": 2709,
      "Ġpac": 2710,
      "Ġdistrict": 2711,
      "Ġforest": 2712,
      "Ġdig": 2713,
      "enced": 2714,
      "Ġshows": 2715,
      "Ġmom": 2716,
      "Ġmach": 2717,
      "Ġgroups": 2718,
      "nown": 2719,
      "Ġgermany": 2720,
      "fin": 2721,
      "Ġclaimed": 2722,
      "Ġbecoming": 2723,
      "Ġlegisl": 2724,
      "Ġbomb": 2725,
      "ging": 2726,
      "Ġadminist": 2727,
      "bour": 2728,
      "Ġwild": 2729,
      "sen": 2730,
      "ba": 2731,
      "Ġscient": 2732,
      "Ġven": 2733,
      "Ġremaining": 2734,
      "Ġterms": 2735,
      "Ġny": 2736,
      "Ġcharles": 2737,
      "Ġlimited": 2738,
      "bc": 2739,
      "Ġchristian": 2740,
      "Ġemer": 2741,
      "ites": 2742,
      "Ġknowledge": 2743,
      "Ġliter": 2744,
      "Ġpun": 2745,
      "Ġusually": 2746,
      "oid": 2747,
      "ication": 2748,
      "Ġappointed": 2749,
      "Ġreally": 2750,
      "Ġdaughter": 2751,
      "'d": 2752,
      "onna": 2753,
      "Ġindia": 2754,
      "Ġcommander": 2755,
      "Ġfair": 2756,
      "Ġbank": 2757,
      "rel": 2758,
      "war": 2759,
      "Ġsafe": 2760,
      "odies": 2761,
      "Ġlib": 2762,
      "Ġlarger": 2763,
      "Ġtemper": 2764,
      "Ġbattalion": 2765,
      "Ġjun": 2766,
      "Ġguitar": 2767,
      "Ġthomas": 2768,
      "Ġdecision": 2769,
      "Ġeducation": 2770,
      "car": 2771,
      "ental": 2772,
      "Ġminister": 2773,
      "Ġbene": 2774,
      "Ġdestroyed": 2775,
      "abit": 2776,
      "Ġran": 2777,
      "change": 2778,
      "Ġfest": 2779,
      "icles": 2780,
      "Ġslow": 2781,
      "Ġsurface": 2782,
      "ergy": 2783,
      "joy": 2784,
      "Ġparl": 2785,
      "anced": 2786,
      "Ġsurround": 2787,
      "Ġdefeated": 2788,
      "Ġinfluence": 2789,
      "Ġeffects": 2790,
      "oor": 2791,
      "win": 2792,
      "Ġplant": 2793,
      "Ġchanges": 2794,
      "Ġvillage": 2795,
      "Ġindividual": 2796,
      "Ġgreatest": 2797,
      "Ġbroadcast": 2798,
      "Ġmuse": 2799,
      "Ġissue": 2800,
      "Ġexam": 2801,
      "ulf": 2802,
      "Ġcarry": 2803,
      "Ġleaving": 2804,
      "pan": 2805,
      "ken": 2806,
      "Ġwit": 2807,
      "Ġmex": 2808,
      "Ġterm": 2809,
      "Ġimmediately": 2810,
      "ulated": 2811,
      "atory": 2812,
      "Ġburn": 2813,
      "Ġgovernor": 2814,
      "Ġaccess": 2815,
      "Ġproposed": 2816,
      "ays": 2817,
      "Ġwalk": 2818,
      "Ġmaster": 2819,
      "Ġbrief": 2820,
      "ech": 2821,
      "hu": 2822,
      "light": 2823,
      "ension": 2824,
      "Ġprogress": 2825,
      "Ġhosp": 2826,
      "Ġprin": 2827,
      "Ġpolic": 2828,
      "Ġtype": 2829,
      "Ġindustry": 2830,
      "Ġmotion": 2831,
      "oms": 2832,
      "Ġentered": 2833,
      "Ġpersonal": 2834,
      "Ġelse": 2835,
      "Ġstudents": 2836,
      "igan": 2837,
      "Ġblue": 2838,
      "Ġempire": 2839,
      "Ġpurp": 2840,
      "Ġaccount": 2841,
      "Ġcompan": 2842,
      "Ġrelative": 2843,
      "Ġbelong": 2844,
      "rem": 2845,
      "Ġdepartment": 2846,
      "Ġsov": 2847,
      "Ġdut": 2848,
      "bro": 2849,
      "Ġsays": 2850,
      "erve": 2851,
      "Ġclim": 2852,
      "Ġservices": 2853,
      "Ġtax": 2854,
      "Ġfifth": 2855,
      "Ġconclud": 2856,
      "Ġaw": 2857,
      "Ġchic": 2858,
      "nor": 2859,
      "Ġqual": 2860,
      "Ġforward": 2861,
      "Ġsuggested": 2862,
      "Ġlanguage": 2863,
      "ria": 2864,
      "lymp": 2865,
      "isions": 2866,
      "Ġlyric": 2867,
      "Ġrichard": 2868,
      "Ġdemocr": 2869,
      "Ġoperations": 2870,
      "Ġremains": 2871,
      "Ġprince": 2872,
      "iament": 2873,
      "abor": 2874,
      "Ġwal": 2875,
      "icted": 2876,
      "Ġfavor": 2877,
      "Ġpeace": 2878,
      "Ġspecific": 2879,
      "Ġideas": 2880,
      "Ġoverall": 2881,
      "Ġestimated": 2882,
      "icient": 2883,
      "tery": 2884,
      "Ġprovide": 2885,
      "Ġsuf": 2886,
      "Ġagreed": 2887,
      "Ġappears": 2888,
      "Ġess": 2889,
      "order": 2890,
      "Ġnearly": 2891,
      "berg": 2892,
      "rated": 2893,
      "Ġathen": 2894,
      "Ġmethod": 2895,
      "Ġintended": 2896,
      "porary": 2897,
      "osing": 2898,
      "king": 2899,
      "Ġteams": 2900,
      "Ġcommercial": 2901,
      "Ġattend": 2902,
      "acing": 2903,
      "Ġsmith": 2904,
      "Ġchanged": 2905,
      "Ġflor": 2906,
      "Ġdie": 2907,
      "Ġspirit": 2908,
      "Ġdiss": 2909,
      "Ġdisplay": 2910,
      "band": 2911,
      "Ġmuseum": 2912,
      "aging": 2913,
      "Ġdeg": 2914,
      "Ġnetwork": 2915,
      "Ġestablish": 2916,
      "Ġcitiz": 2917,
      "yn": 2918,
      "ously": 2919,
      "Ġscript": 2920,
      "Ġmarried": 2921,
      "thes": 2922,
      "Ġsize": 2923,
      "Ġcomplex": 2924,
      "Ġign": 2925,
      "Ġmultip": 2926,
      "ximately": 2927,
      "Ġleader": 2928,
      "Ġepisodes": 2929,
      "Ġbritain": 2930,
      "Ġpurch": 2931,
      "hood": 2932,
      "Ġdom": 2933,
      "Ġupper": 2934,
      "Ġolymp": 2935,
      "Ġsand": 2936,
      "Ġimm": 2937,
      "Ġtakes": 2938,
      "Ġfrank": 2939,
      "Ġbul": 2940,
      "aught": 2941,
      "iter": 2942,
      "Ġsyn": 2943,
      "leg": 2944,
      "Ġvan": 2945,
      "Ġkil": 2946,
      "ounds": 2947,
      "Ġcele": 2948,
      "idents": 2949,
      "Ġmess": 2950,
      "Ġelection": 2951,
      "Ġhero": 2952,
      "agement": 2953,
      "Ġnd": 2954,
      "Ġislands": 2955,
      "uments": 2956,
      "Ġassemb": 2957,
      "ruction": 2958,
      "Ġcapital": 2959,
      "Ġequal": 2960,
      "ests": 2961,
      "Ġdate": 2962,
      "ania": 2963,
      "Ġnaval": 2964,
      "Ġbooks": 2965,
      "Ġparliament": 2966,
      "Ġchall": 2967,
      "Ġlikely": 2968,
      "class": 2969,
      "Ġgard": 2970,
      "Ġlaws": 2971,
      "pass": 2972,
      "orial": 2973,
      "Ġwriter": 2974,
      "Ġcompared": 2975,
      "riage": 2976,
      "ias": 2977,
      "ban": 2978,
      "Ġflag": 2979,
      "onse": 2980,
      "oper": 2981,
      "ify": 2982,
      "Ġcand": 2983,
      "asy": 2984,
      "Ġbirth": 2985,
      "Ġstructure": 2986,
      "Ġmention": 2987,
      "Ġmic": 2988,
      "Ġpeter": 2989,
      "Ġofficers": 2990,
      "ortun": 2991,
      "Ġproceed": 2992,
      "nel": 2993,
      "Ġrunning": 2994,
      "gl": 2995,
      "Ġwithd": 2996,
      "Ġcorps": 2997,
      "Ġproperty": 2998,
      "inese": 2999,
      "Ġbud": 3000,
      "Ġans": 3001,
      "Ġregiment": 3002,
      "Ġpet": 3003,
      "po": 3004,
      "Ġspeak": 3005,
      "Ġcust": 3006,
      "Ġol": 3007,
      "Ġpict": 3008,
      "Ġcongress": 3009,
      "jected": 3010,
      "Ġdepression": 3011,
      "Ġtruth": 3012,
      "Ġspring": 3013,
      "Ġwinter": 3014,
      "Ġconsist": 3015,
      "Ġweap": 3016,
      "Ġscreen": 3017,
      "Ġsupported": 3018,
      "don": 3019,
      "sec": 3020,
      "Ġsuffered": 3021,
      "viron": 3022,
      "Ġauthority": 3023,
      "tic": 3024,
      "ography": 3025,
      "rs": 3026,
      "unt": 3027,
      "Ġenjoy": 3028,
      "Ġbor": 3029,
      "Ġcm": 3030,
      "Ġcountries": 3031,
      "Ġcell": 3032,
      "Ġscenes": 3033,
      "Ġbox": 3034,
      "har": 3035,
      "ump": 3036,
      "Ġbrigade": 3037,
      "iser": 3038,
      "Ġhelped": 3039,
      "Ġtracks": 3040,
      "Ġpressure": 3041,
      "Ġrailway": 3042,
      "Ġcreate": 3043,
      "Ġattr": 3044,
      "burg": 3045,
      "Ġbattles": 3046,
      "Ġdemon": 3047,
      "Ġincrease": 3048,
      "Ġshown": 3049,
      "Ġmission": 3050,
      "Ġoffered": 3051,
      "bec": 3052,
      "Ġbreed": 3053,
      "Ġhands": 3054,
      "Ġneigh": 3055,
      "Ġultim": 3056,
      "andon": 3057,
      "Ġfeature": 3058,
      "rents": 3059,
      "ena": 3060,
      "Ġut": 3061,
      "Ġsac": 3062,
      "hold": 3063,
      "Ġapproach": 3064,
      "Ġquarter": 3065,
      "Ġbra": 3066,
      "ili": 3067,
      "umed": 3068,
      "Ġawarded": 3069,
      "Ġraised": 3070,
      "Ġnecessary": 3071,
      "Ġnumbers": 3072,
      "Ġextended": 3073,
      "Ġvirginia": 3074,
      "Ġmodel": 3075,
      "Ġcaptured": 3076,
      "Ġnation": 3077,
      "Ġcontem": 3078,
      "Ġofficer": 3079,
      "Ġinstr": 3080,
      "Ġfederal": 3081,
      "Ġtrade": 3082,
      "Ġalone": 3083,
      "Ġmanner": 3084,
      "Ġmagn": 3085,
      "aches": 3086,
      "Ġequip": 3087,
      "Ġresponse": 3088,
      "Ġjew": 3089,
      "la": 3090,
      "Ġmcc": 3091,
      "Ġenviron": 3092,
      "Ġrule": 3093,
      "Ġshoot": 3094,
      "Ġplanned": 3095,
      "Ġfal": 3096,
      "Ġconditions": 3097,
      "Ġaltern": 3098,
      "Ġfans": 3099,
      "Ġwa": 3100,
      "Ġremoved": 3101,
      "Ġmixed": 3102,
      "vey": 3103,
      "Ġactions": 3104,
      "fected": 3105,
      "Ġund": 3106,
      "Ġgirl": 3107,
      "Ġdetermin": 3108,
      "Ġcomposed": 3109,
      "Ġvalley": 3110,
      "ounded": 3111,
      "Ġincreasing": 3112,
      "Ġvisit": 3113,
      "Ġbuildings": 3114,
      "Ġforeign": 3115,
      "Ġdang": 3116,
      "Ġfant": 3117,
      "ening": 3118,
      "Ġunit": 3119,
      "Ġlad": 3120,
      "chester": 3121,
      "Ġdog": 3122,
      "Ġnumerous": 3123,
      "ples": 3124,
      "Ġsle": 3125,
      "Ġdiscovered": 3126,
      "Ġ(\"": 3127,
      "cting": 3128,
      "Ġmaxim": 3129,
      "Ġadop": 3130,
      "Ġjournal": 3131,
      "Ġconver": 3132,
      "aily": 3133,
      "Ġspanish": 3134,
      "Ġprec": 3135,
      "Ġmeant": 3136,
      "Ġtom": 3137,
      "iles": 3138,
      "Ġanything": 3139,
      "Ġwhy": 3140,
      "olic": 3141,
      "cont": 3142,
      "Ġstandard": 3143,
      "Ġassociated": 3144,
      "Ġmanager": 3145,
      "Ġrat": 3146,
      "Ġnames": 3147,
      "Ġgiving": 3148,
      "Ġdoub": 3149,
      "isc": 3150,
      "Ġinformation": 3151,
      "which": 3152,
      "Ġgal": 3153,
      "bre": 3154,
      "iest": 3155,
      "Ġconc": 3156,
      "Ġsubsequently": 3157,
      "Ġtal": 3158,
      "uals": 3159,
      "Ġdance": 3160,
      "Ġmeeting": 3161,
      "Ġprobably": 3162,
      "Ġsoviet": 3163,
      "Ġwel": 3164,
      "Ġchicago": 3165,
      "Ġital": 3166,
      "Ġevil": 3167,
      "Ġdra": 3168,
      "Ġcelebr": 3169,
      "rec": 3170,
      "Ġprimary": 3171,
      "Ġcopies": 3172,
      "just": 3173,
      "vin": 3174,
      "Ġcard": 3175,
      "Ġfranc": 3176,
      "Ġconfir": 3177,
      "atives": 3178,
      "iqu": 3179,
      "Ġblock": 3180,
      "Ġfighting": 3181,
      "Ġapproximately": 3182,
      "Ġplans": 3183,
      "Ġoce": 3184,
      "Ġopinion": 3185,
      "ka": 3186,
      "Ġsav": 3187,
      "Ġstra": 3188,
      "Ġincludes": 3189,
      "wise": 3190,
      "Ġcontains": 3191,
      "Ġmas": 3192,
      "Ġconstant": 3193,
      "Ġchinese": 3194,
      "Ġcases": 3195,
      "Ġmajority": 3196,
      "urity": 3197,
      "Ġkore": 3198,
      "Ġmorning": 3199,
      "Ġmostly": 3200,
      "Ġnin": 3201,
      "lands": 3202,
      "quar": 3203,
      "Ġindependent": 3204,
      "Ġfinally": 3205,
      "Ġ),": 3206,
      "venue": 3207,
      "Ġcolor": 3208,
      "Ġjustice": 3209,
      "ingu": 3210,
      "aped": 3211,
      "Ġexc": 3212,
      "Ġdaily": 3213,
      "Ġproduce": 3214,
      "Ġenter": 3215,
      "Ġissued": 3216,
      "aven": 3217,
      "illed": 3218,
      "Ġneither": 3219,
      "Ġtermin": 3220,
      "Ġplot": 3221,
      "Ġportray": 3222,
      "Ġbillboard": 3223,
      "Ġkept": 3224,
      "Ġmoving": 3225,
      "add": 3226,
      "chan": 3227,
      "Ġarms": 3228,
      "Ġrout": 3229,
      "Ġrare": 3230,
      "Ġletter": 3231,
      "Ġhospital": 3232,
      "reme": 3233,
      "Ġmale": 3234,
      "Ġlog": 3235,
      "Ġproblems": 3236,
      "Ġjackson": 3237,
      "Ġimper": 3238,
      "yard": 3239,
      "Ġartist": 3240,
      "Ġcateg": 3241,
      "Ġsides": 3242,
      "pted": 3243,
      "anged": 3244,
      "Ġdepend": 3245,
      "Ġintens": 3246,
      "Ġarchite": 3247,
      "Ġadvance": 3248,
      "Ġslight": 3249,
      "Ġinitial": 3250,
      "ails": 3251,
      "Ġbelow": 3252,
      "Ġfinanc": 3253,
      "Ġgoals": 3254,
      "Ġiron": 3255,
      "Ġforms": 3256,
      "Ġdouble": 3257,
      "ibly": 3258,
      "Ġrepe": 3259,
      "since": 3260,
      "Ġsingles": 3261,
      "road": 3262,
      "iences": 3263,
      "Ġprofessional": 3264,
      "ca": 3265,
      "Ġunable": 3266,
      "Ġedition": 3267,
      "Ġimag": 3268,
      "Ġpacific": 3269,
      "ev": 3270,
      "ems": 3271,
      "Ġattention": 3272,
      "Ġheav": 3273,
      "Ġenergy": 3274,
      "Ġanimals": 3275,
      "Ġwing": 3276,
      "Ġcoach": 3277,
      "Ġtrain": 3278,
      "Ġvia": 3279,
      "Ġcoming": 3280,
      "track": 3281,
      "itation": 3282,
      "Ġpoet": 3283,
      "Ġstrength": 3284,
      "Ġactive": 3285,
      "Ġsinger": 3286,
      "Ġproducer": 3287,
      "Ġmeaning": 3288,
      "Ġrevealed": 3289,
      "Ġhus": 3290,
      "Ġcreek": 3291,
      "Ġmont": 3292,
      "Ġsn": 3293,
      "Ġlyrics": 3294,
      "part": 3295,
      "Ġafrica": 3296,
      "wide": 3297,
      "uries": 3298,
      "Ġbond": 3299,
      "bury": 3300,
      "house": 3301,
      "Ġattacked": 3302,
      "char": 3303,
      "ulty": 3304,
      "Ġexpected": 3305,
      "Ġconfl": 3306,
      "Ġconserv": 3307,
      "gypt": 3308,
      "Ġincor": 3309,
      "Ġadmir": 3310,
      "Ġedward": 3311,
      "Ġves": 3312,
      "mas": 3313,
      "Ġconference": 3314,
      "Ġmovie": 3315,
      "Ġhum": 3316,
      "Ġdeclared": 3317,
      "Ġlocation": 3318,
      "based": 3319,
      "Ġtraff": 3320,
      "Ġcritical": 3321,
      "Ġcomes": 3322,
      "Ġsett": 3323,
      "acher": 3324,
      "Ġalbums": 3325,
      "Ġwinning": 3326,
      "Ġdefin": 3327,
      "era": 3328,
      "Ġcomed": 3329,
      "Ġattempted": 3330,
      "ole": 3331,
      "Ġfast": 3332,
      "Ġrespectively": 3333,
      "Ġemper": 3334,
      "Ġoil": 3335,
      "Ġsmaller": 3336,
      "Ġveh": 3337,
      "Ġrequest": 3338,
      "Ġoccurred": 3339,
      "Ġcombat": 3340,
      "Ġdamaged": 3341,
      "col": 3342,
      "Ġassigned": 3343,
      "Ġtons": 3344,
      "gment": 3345,
      "Ġsales": 3346,
      "Ġvariety": 3347,
      "pa": 3348,
      "Ġlouis": 3349,
      "Ġcounter": 3350,
      "Ġet": 3351,
      "Ġpractice": 3352,
      "adium": 3353,
      "oses": 3354,
      "Ġneeded": 3355,
      "many": 3356,
      "see": 3357,
      "Ġanal": 3358,
      "ctive": 3359,
      "Ġkh": 3360,
      "Ġstatus": 3361,
      "Ġimprove": 3362,
      "Ġflorida": 3363,
      "Ġrevolution": 3364,
      "Ġrefused": 3365,
      "Ġfestival": 3366,
      "Ġbed": 3367,
      "dr": 3368,
      "Ġjose": 3369,
      "once": 3370,
      "olk": 3371,
      "Ġrelated": 3372,
      "Ġattacks": 3373,
      "oes": 3374,
      "Ġdefeat": 3375,
      "ii": 3376,
      "Ġreferred": 3377,
      "Ġscot": 3378,
      "Ġfollows": 3379,
      "Ġexped": 3380,
      "Ġast": 3381,
      "Ġfigure": 3382,
      "ellig": 3383,
      "Ġshar": 3384,
      "Ġbodies": 3385,
      "Ġchina": 3386,
      "Ġseparate": 3387,
      "Ġindic": 3388,
      "Ġserious": 3389,
      "Ġreligious": 3390,
      "Ġangeles": 3391,
      "Ġken": 3392,
      "Ġdirection": 3393,
      "izing": 3394,
      "Ġgall": 3395,
      "ett": 3396,
      "Ġconstitution": 3397,
      "Ġtalk": 3398,
      "rey": 3399,
      "Ġswe": 3400,
      "Ġcrow": 3401,
      "Ġlot": 3402,
      "Ġsilver": 3403,
      "Ġsister": 3404,
      "Ġbound": 3405,
      "Ġegypt": 3406,
      "Ġheard": 3407,
      "Ġselected": 3408,
      "ucle": 3409,
      "Ġatlantic": 3410,
      "mi": 3411,
      "lor": 3412,
      "aland": 3413,
      "Ġhonor": 3414,
      "Ġfreed": 3415,
      "Ġtoday": 3416,
      "mission": 3417,
      "Ġcondition": 3418,
      "urs": 3419,
      "Ġinside": 3420,
      "Ġmaintain": 3421,
      "Ġconsequ": 3422,
      "Ġmartin": 3423,
      "thy": 3424,
      "fact": 3425,
      "nds": 3426,
      "Ġcovered": 3427,
      "Ġaudience": 3428,
      "later": 3429,
      "Ġschol": 3430,
      "Ġlaunched": 3431,
      "Ġchance": 3432,
      "Ġrecom": 3433,
      "Ġsevere": 3434,
      "Ġeyes": 3435,
      "Ġsenate": 3436,
      "Ġris": 3437,
      "Ġbelieve": 3438,
      "Ġice": 3439,
      "claim": 3440,
      "Ġpu": 3441,
      "Ġcontinue": 3442,
      "Ġgods": 3443,
      "iance": 3444,
      "Ġdistinct": 3445,
      "Ġlived": 3446,
      "Ġresulted": 3447,
      "Ġrapid": 3448,
      "Ġability": 3449,
      "ners": 3450,
      "Ġyards": 3451,
      "Ġentertainment": 3452,
      "ght": 3453,
      "Ġmetal": 3454,
      "Ġpenn": 3455,
      "Ġabandon": 3456,
      "Ġenvironment": 3457,
      "Ġtouch": 3458,
      "Ġschools": 3459,
      "ram": 3460,
      "Ġoccasion": 3461,
      "Ġtexas": 3462,
      "ims": 3463,
      "Ġsir": 3464,
      "Ġsimp": 3465,
      "rial": 3466,
      "Ġcities": 3467,
      "Ġannual": 3468,
      "Ġrate": 3469,
      "anes": 3470,
      "Ġdemonstr": 3471,
      "Ġbecomes": 3472,
      "Ġsched": 3473,
      "work": 3474,
      "thr": 3475,
      "Ġdoing": 3476,
      "Ġspl": 3477,
      "Ġcab": 3478,
      "Ġpick": 3479,
      "hl": 3480,
      "Ġrein": 3481,
      "Ġdivided": 3482,
      "Ġcyclone": 3483,
      "Ġinterse": 3484,
      "Ġranked": 3485,
      "Ġnewsp": 3486,
      "Ġclosed": 3487,
      "Ġeye": 3488,
      "Ġissues": 3489,
      "Ġdv": 3490,
      "Ġactor": 3491,
      "oe": 3492,
      "Ġocean": 3493,
      "Ġcollection": 3494,
      "Ġspeech": 3495,
      "Ġadvant": 3496,
      "Ġmarriage": 3497,
      "Ġlargely": 3498,
      "sm": 3499,
      "Ġearned": 3500,
      "Ġwaters": 3501,
      "Ġmeas": 3502,
      "Ġnative": 3503,
      "Ġdise": 3504,
      "Ġinspired": 3505,
      "Ġcanadian": 3506,
      "ighter": 3507,
      "haps": 3508,
      "Ġfox": 3509,
      "Ġcommented": 3510,
      "Ġtheme": 3511,
      "Ġflow": 3512,
      "Ġcoup": 3513,
      "Ġreform": 3514,
      "Ġsort": 3515,
      "Ġelected": 3516,
      "Ġtun": 3517,
      "Ġgreek": 3518,
      "Ġcarol": 3519,
      "Ġtried": 3520,
      "Ġreduced": 3521,
      "fr": 3522,
      "ros": 3523,
      "zz": 3524,
      "Ġpresented": 3525,
      "Ġancient": 3526,
      "bridge": 3527,
      "Ġrid": 3528,
      "Ġmere": 3529,
      "cul": 3530,
      "Ġkent": 3531,
      "bit": 3532,
      "Ġinh": 3533,
      "Ġexhib": 3534,
      "Ġtemple": 3535,
      "Ġhouses": 3536,
      "Ġdirectly": 3537,
      "miss": 3538,
      "Ġath": 3539,
      "will": 3540,
      "Ġbeyond": 3541,
      "orses": 3542,
      "uten": 3543,
      "Ġstadium": 3544,
      "Ġshowed": 3545,
      "Ġtraditional": 3546,
      "Ġcompetition": 3547,
      "Ġemperor": 3548,
      "Ġsource": 3549,
      "mark": 3550,
      "Ġmir": 3551,
      "mus": 3552,
      "Ġpresence": 3553,
      "kin": 3554,
      "force": 3555,
      "ogue": 3556,
      "Ġlisted": 3557,
      "Ġraid": 3558,
      "Ġstories": 3559,
      "Ġreplace": 3560,
      "Ġpsy": 3561,
      "Ġded": 3562,
      "osaur": 3563,
      "Ġactually": 3564,
      "Ġlink": 3565,
      "Ġconcert": 3566,
      "Ġcontent": 3567,
      "ellow": 3568,
      "Ġbegins": 3569,
      "Ġdream": 3570,
      "Ġrd": 3571,
      "Ġobserved": 3572,
      "Ġcompos": 3573,
      "Ġphilosoph": 3574,
      "Ġsuppl": 3575,
      "Ġtower": 3576,
      "Ġlaid": 3577,
      "Ġshare": 3578,
      "Ġwriters": 3579,
      "Ġquality": 3580,
      "Ġtext": 3581,
      "Ġsports": 3582,
      "Ġpossess": 3583,
      "Ġextreme": 3584,
      "oud": 3585,
      "Ġattended": 3586,
      "Ġopportun": 3587,
      "cell": 3588,
      "Ġfat": 3589,
      "Ġplaces": 3590,
      "Ġthick": 3591,
      "Ġjudge": 3592,
      "Ġaccepted": 3593,
      "Ġash": 3594,
      "Ġsuc": 3595,
      "Ġcold": 3596,
      "Ġod": 3597,
      "itable": 3598,
      "Ġban": 3599,
      "Ġfrancis": 3600,
      "Ġproved": 3601,
      "Ġairport": 3602,
      "mod": 3603,
      "both": 3604,
      "Ġhind": 3605,
      "nament": 3606,
      "iring": 3607,
      "Ġdistance": 3608,
      "met": 3609,
      "Ġrose": 3610,
      "Ġhighly": 3611,
      "Ġitalian": 3612,
      "inent": 3613,
      "Ġviet": 3614,
      "Ġjohnson": 3615,
      "olved": 3616,
      "Ġmun": 3617,
      "Ġdocument": 3618,
      "Ġeth": 3619,
      "Ġwrest": 3620,
      "Ġyouth": 3621,
      "Ġvessel": 3622,
      "Ġbon": 3623,
      "Ġlegal": 3624,
      "opher": 3625,
      "Ġfarm": 3626,
      "Ġcharge": 3627,
      "Ġcitizens": 3628,
      "umn": 3629,
      "Ġeffort": 3630,
      "you": 3631,
      "Ġcry": 3632,
      "Ġtrust": 3633,
      "Ġjim": 3634,
      "Ġdemand": 3635,
      "Ġconstructed": 3636,
      "Ġfavour": 3637,
      "ari": 3638,
      "Ġintellig": 3639,
      "Ġparents": 3640,
      "Ġcham": 3641,
      "Ġdoctor": 3642,
      "Ġsettle": 3643,
      "gs": 3644,
      "ips": 3645,
      "Ġwick": 3646,
      "Ġpair": 3647,
      "theless": 3648,
      "americ": 3649,
      "Ġrussian": 3650,
      "Ġspot": 3651,
      "Ġexistence": 3652,
      "Ġcandid": 3653,
      "Ġsucceed": 3654,
      "Ġnearby": 3655,
      "Ġnucle": 3656,
      "Ġmoment": 3657,
      "Ġhusband": 3658,
      "ancy": 3659,
      "Ġnotes": 3660,
      "Ġchann": 3661,
      "Ġluc": 3662,
      "Ġring": 3663,
      "right": 3664,
      "Ġpath": 3665,
      "Ġcontrovers": 3666,
      "Ġbell": 3667,
      "end": 3668,
      "Ġcath": 3669,
      "Ġconce": 3670,
      "Ġdrive": 3671,
      "born": 3672,
      "Ġwales": 3673,
      "Ġeconomic": 3674,
      "Ġfellow": 3675,
      "Ġpoll": 3676,
      "fully": 3677,
      "icip": 3678,
      "Ġserve": 3679,
      "Ġdefence": 3680,
      "Ġcub": 3681,
      "ishop": 3682,
      "Ġextr": 3683,
      "Ġlevels": 3684,
      "Ġmatches": 3685,
      "Ġemb": 3686,
      "rical": 3687,
      "Ġlif": 3688,
      "Ġdefense": 3689,
      "Ġportion": 3690,
      "Ġnone": 3691,
      "Ġimpact": 3692,
      "ils": 3693,
      "Ġstating": 3694,
      "Ġhorses": 3695,
      "Ġsought": 3696,
      "mo": 3697,
      "uter": 3698,
      "Ġstrugg": 3699,
      "Ġterritory": 3700,
      "Ġdrum": 3701,
      "Ġbab": 3702,
      "Ġmort": 3703,
      "oured": 3704,
      "Ġafrican": 3705,
      "another": 3706,
      "Ġtrial": 3707,
      "ya": 3708,
      "cript": 3709,
      "Ġlabor": 3710,
      "Ġstruck": 3711,
      "clusion": 3712,
      "Ġtv": 3713,
      "Ġtheatre": 3714,
      "Ġpurpose": 3715,
      "Ġstarting": 3716,
      "Ġgree": 3717,
      "Ġmut": 3718,
      "alle": 3719,
      "Ġzealand": 3720,
      "iated": 3721,
      "Ġencoun": 3722,
      "Ġrang": 3723,
      "Ġdesire": 3724,
      "yth": 3725,
      "ote": 3726,
      "Ġsym": 3727,
      "Ġavoid": 3728,
      "erate": 3729,
      "ada": 3730,
      "vert": 3731,
      "Ġincorpor": 3732,
      "Ġdistingu": 3733,
      "Ġpositions": 3734,
      "Ġtheory": 3735,
      "ping": 3736,
      "Ġlives": 3737,
      "Ġsearch": 3738,
      "Ġarts": 3739,
      "ament": 3740,
      "Ġcompe": 3741,
      "Ġweight": 3742,
      "Ġeverything": 3743,
      "isher": 3744,
      "Ġmechan": 3745,
      "Ġweather": 3746,
      "Ġculture": 3747,
      "illery": 3748,
      "Ġuses": 3749,
      "Ġcontinues": 3750,
      "Ġera": 3751,
      "Ġelectric": 3752,
      "Ġefforts": 3753,
      "Ġmexico": 3754,
      "Ġfantasy": 3755,
      "Ġdar": 3756,
      "Ġrequire": 3757,
      "Ġnick": 3758,
      "Ġperfect": 3759,
      "Ġpropos": 3760,
      "Ġflying": 3761,
      "Ġbroke": 3762,
      "bu": 3763,
      "utenant": 3764,
      "Ġmedical": 3765,
      "Ġhaw": 3766,
      "Ġreceive": 3767,
      "Ġq": 3768,
      "Ġoffer": 3769,
      "Ġheight": 3770,
      "Ġwrite": 3771,
      "Ġacademy": 3772,
      "Ġsar": 3773,
      "fit": 3774,
      "Ġmanaged": 3775,
      "ares": 3776,
      "Ġlibr": 3777,
      "Ġadministration": 3778,
      "Ġconducted": 3779,
      "Ġstudies": 3780,
      "ona": 3781,
      "Ġresponsible": 3782,
      "Ġamount": 3783,
      "Ġanimal": 3784,
      "Ġdropped": 3785,
      "Ġshortly": 3786,
      "Ġhour": 3787,
      "Ġindeed": 3788,
      "arent": 3789,
      "Ġdvd": 3790,
      "Ġrow": 3791,
      "Ġpassing": 3792,
      "uls": 3793,
      "ding": 3794,
      "Ġresulting": 3795,
      "Ġsymb": 3796,
      "ado": 3797,
      "john": 3798,
      "Ġpolicy": 3799,
      "Ġpaid": 3800,
      "Ġhonour": 3801,
      "Ġacting": 3802,
      "elled": 3803,
      ");": 3804,
      "Ġcombined": 3805,
      "Ġclo": 3806,
      "Ġitaly": 3807,
      "Ġgas": 3808,
      "Ġfinancial": 3809,
      "Ġrear": 3810,
      "Ġmemorial": 3811,
      "Ġmarked": 3812,
      "Ġmultiple": 3813,
      "Ġthou": 3814,
      "Ġstan": 3815,
      "star": 3816,
      "rates": 3817,
      "Ġvocal": 3818,
      "Ġgained": 3819,
      "clus": 3820,
      "Ġarrest": 3821,
      "Ġcalling": 3822,
      "Ġtraffic": 3823,
      "ordin": 3824,
      "town": 3825,
      "isation": 3826,
      "Ġformation": 3827,
      "Ġescape": 3828,
      "Ġimage": 3829,
      "Ġhell": 3830,
      "Ġinches": 3831,
      "Ġpowerful": 3832,
      "stone": 3833,
      "osen": 3834,
      "Ġrecomme": 3835,
      "ills": 3836,
      "Ġcontrast": 3837,
      "Ġec": 3838,
      "ican": 3839,
      "Ġperformances": 3840,
      "rich": 3841,
      "Ġmichigan": 3842,
      "Ġstruct": 3843,
      "Ġconcluded": 3844,
      "Ġpotential": 3845,
      "acity": 3846,
      "uted": 3847,
      "Ġbit": 3848,
      "Ġtransferred": 3849,
      "Ġcompanies": 3850,
      "Ġencour": 3851,
      "thur": 3852,
      "Ġbes": 3853,
      "inch": 3854,
      "Ġnations": 3855,
      "Ġallowing": 3856,
      "Ġresist": 3857,
      "Ġfounded": 3858,
      "Ġrough": 3859,
      "Ġprime": 3860,
      "par": 3861,
      "Ġvirtue": 3862,
      "astic": 3863,
      "Ġcart": 3864,
      "Ġattempts": 3865,
      "Ġpursu": 3866,
      "Ġhope": 3867,
      "Ġspect": 3868,
      "Ġreference": 3869,
      "Ġexplained": 3870,
      "Ġelev": 3871,
      "Ġsystems": 3872,
      "Ġorganization": 3873,
      "Ġelement": 3874,
      "Ġadvantage": 3875,
      "Ġapart": 3876,
      "Ġparis": 3877,
      "rain": 3878,
      "Ġda": 3879,
      "Ġending": 3880,
      "greg": 3881,
      "Ġtrou": 3882,
      "Ġartillery": 3883,
      "Ġartists": 3884,
      "Ġseems": 3885,
      "Ġproblem": 3886,
      "resh": 3887,
      "Ġaccident": 3888,
      "Ġsituation": 3889,
      "Ġpilot": 3890,
      "iced": 3891,
      "Ġweak": 3892,
      "Ġmetres": 3893,
      "resp": 3894,
      "Ġdefend": 3895,
      "Ġsail": 3896,
      "Ġstudios": 3897,
      "Ġexecutive": 3898,
      "Ġadvent": 3899,
      "Ġsixth": 3900,
      "Ġsecurity": 3901,
      "Ġemot": 3902,
      "iverse": 3903,
      "Ġought": 3904,
      "Ġviewers": 3905,
      "Ġgam": 3906,
      "Ġpiece": 3907,
      "Ġdru": 3908,
      "omer": 3909,
      "Ġcrown": 3910,
      "Ġvalue": 3911,
      "through": 3912,
      "Ġram": 3913,
      "Ġid": 3914,
      "Ġsust": 3915,
      "Ġconvention": 3916,
      "ounts": 3917,
      "Ġpremie": 3918,
      "Ġclos": 3919,
      "Ġsupre": 3920,
      "sim": 3921,
      "Ġweaken": 3922,
      "Ġedge": 3923,
      "Ġmist": 3924,
      "Ġtravel": 3925,
      "Ġlik": 3926,
      "Ġtransl": 3927,
      "Ġbirds": 3928,
      "Ġwalls": 3929,
      "because": 3930,
      "Ġquite": 3931,
      "Ġnegative": 3932,
      "Ġtournament": 3933,
      "Ġhat": 3934,
      "Ġdin": 3935,
      "Ġmachine": 3936,
      "Ġchem": 3937,
      "Ġwars": 3938,
      "Ġsaint": 3939,
      "orter": 3940,
      "acts": 3941,
      "Ġherself": 3942,
      "bon": 3943,
      "Ġsoundtrack": 3944,
      "Ġrelatively": 3945,
      "gian": 3946,
      "ulations": 3947,
      "Ġgradu": 3948,
      "Ġultimately": 3949,
      "Ġlin": 3950,
      "Ġsecretary": 3951,
      "Ġjob": 3952,
      "Ġpeaked": 3953,
      "Ġrespond": 3954,
      "ribution": 3955,
      "who": 3956,
      "Ġlatin": 3957,
      "Ġprimarily": 3958,
      "Ġcorpor": 3959,
      "anna": 3960,
      "Ġscotland": 3961,
      "fort": 3962,
      "Ġdegree": 3963,
      "ications": 3964,
      "Ġchron": 3965,
      "Ġtells": 3966,
      "mond": 3967,
      "rol": 3968,
      "Ġles": 3969,
      "Ġfigures": 3970,
      "Ġpack": 3971,
      "Ġdraft": 3972,
      "phy": 3973,
      "Ġhabit": 3974,
      "Ġcollabor": 3975,
      "Ġfru": 3976,
      "was": 3977,
      "Ġtree": 3978,
      "Ġphysical": 3979,
      "Ġba": 3980,
      "Ġbost": 3981,
      "Ġperhaps": 3982,
      "Ġbehav": 3983,
      "Ġassembly": 3984,
      "Ġarab": 3985,
      "quarters": 3986,
      "bet": 3987,
      "Ġpowers": 3988,
      "ja": 3989,
      "ault": 3990,
      "Ġinjury": 3991,
      "stein": 3992,
      "long": 3993,
      "Ġresults": 3994,
      "Ġactivity": 3995,
      "Ġexpressed": 3996,
      "water": 3997,
      "their": 3998,
      "\")": 3999
    },
    "merges": [
      [
        "Ġ",
        "t"
      ],
      [
        "h",
        "e"
      ],
      [
        "Ġ",
        "a"
      ],
      [
        "i",
        "n"
      ],
      [
        "r",
        "e"
      ],
      [
        "Ġt",
        "he"
      ],
      [
        "o",
        "n"
      ],
      [
        "Ġ",
        "s"
      ],
      [
        "n",
        "d"
      ],
      [
        "e",
        "r"
      ],
      [
        "Ġ",
        "w"
      ],
      [
        "Ġ",
        "o"
      ],
      [
        "Ġ",
        "f"
      ],
      [
        "e",
        "n"
      ],
      [
        "Ġ",
        "c"
      ],
      [
        "e",
        "d"
      ],
      [
        "Ġ",
        "b"
      ],
      [
        "a",
        "t"
      ],
      [
        "Ġ",
        "h"
      ],
      [
        "o",
        "u"
      ],
      [
        "i",
        "t"
      ],
      [
        "o",
        "r"
      ],
      [
        "i",
        "s"
      ],
      [
        "Ġ",
        "p"
      ],
      [
        "e",
        "s"
      ],
      [
        "Ġo",
        "f"
      ],
      [
        "Ġt",
        "h"
      ],
      [
        "Ġ",
        "m"
      ],
      [
        "Ġ",
        "in"
      ],
      [
        "a",
        "r"
      ],
      [
        "a",
        "n"
      ],
      [
        "a",
        "l"
      ],
      [
        "in",
        "g"
      ],
      [
        "Ġa",
        "nd"
      ],
      [
        "a",
        "s"
      ],
      [
        "Ġ",
        "d"
      ],
      [
        "Ġ",
        "n"
      ],
      [
        "Ġt",
        "o"
      ],
      [
        "i",
        "c"
      ],
      [
        "l",
        "e"
      ],
      [
        "Ġ",
        "e"
      ],
      [
        "r",
        "o"
      ],
      [
        "Ġ",
        "on"
      ],
      [
        "i",
        "on"
      ],
      [
        "en",
        "t"
      ],
      [
        "Ġ",
        "re"
      ],
      [
        "Ġ",
        "l"
      ],
      [
        "a",
        "nd"
      ],
      [
        "re",
        "d"
      ],
      [
        "v",
        "e"
      ],
      [
        "Ġ",
        "g"
      ],
      [
        "i",
        "l"
      ],
      [
        "s",
        "t"
      ],
      [
        "i",
        "g"
      ],
      [
        "Ġ",
        "u"
      ],
      [
        "ou",
        "s"
      ],
      [
        "Ġb",
        "e"
      ],
      [
        "o",
        "m"
      ],
      [
        "i",
        "r"
      ],
      [
        "t",
        "he"
      ],
      [
        "l",
        "y"
      ],
      [
        "a",
        "m"
      ],
      [
        "Ġh",
        "u"
      ],
      [
        "a",
        "c"
      ],
      [
        "a",
        "d"
      ],
      [
        "t",
        "y"
      ],
      [
        "Ġf",
        "or"
      ],
      [
        "Ġon",
        "e"
      ],
      [
        "Ġw",
        "as"
      ],
      [
        "in",
        "e"
      ],
      [
        "Ġt",
        "w"
      ],
      [
        "Ġs",
        "e"
      ],
      [
        "nd",
        "red"
      ],
      [
        "Ġhu",
        "ndred"
      ],
      [
        "i",
        "m"
      ],
      [
        "ous",
        "and"
      ],
      [
        "Ġth",
        "ousand"
      ],
      [
        "Ġ",
        "he"
      ],
      [
        "i",
        "d"
      ],
      [
        "Ġs",
        "t"
      ],
      [
        "t",
        "h"
      ],
      [
        "Ġa",
        "s"
      ],
      [
        "o",
        "l"
      ],
      [
        "s",
        "e"
      ],
      [
        "u",
        "r"
      ],
      [
        "c",
        "t"
      ],
      [
        "ig",
        "h"
      ],
      [
        "t",
        "er"
      ],
      [
        "v",
        "er"
      ],
      [
        "o",
        "w"
      ],
      [
        "Ġw",
        "h"
      ],
      [
        "Ġth",
        "at"
      ],
      [
        "c",
        "e"
      ],
      [
        "it",
        "h"
      ],
      [
        "u",
        "t"
      ],
      [
        "a",
        "y"
      ],
      [
        "Ġn",
        "ine"
      ],
      [
        "Ġ",
        "r"
      ],
      [
        "Ġ",
        "is"
      ],
      [
        "o",
        "t"
      ],
      [
        "Ġw",
        "ith"
      ],
      [
        "Ġa",
        "l"
      ],
      [
        "e",
        "l"
      ],
      [
        "Ġu",
        "n"
      ],
      [
        "Ġtw",
        "o"
      ],
      [
        "Ġ",
        "it"
      ],
      [
        "at",
        "ion"
      ],
      [
        "'",
        "s"
      ],
      [
        "c",
        "h"
      ],
      [
        "t",
        "e"
      ],
      [
        "i",
        "f"
      ],
      [
        "Ġa",
        "n"
      ],
      [
        "Ġc",
        "on"
      ],
      [
        "i",
        "ve"
      ],
      [
        "Ġb",
        "y"
      ],
      [
        "Ġd",
        "e"
      ],
      [
        "ou",
        "r"
      ],
      [
        "Ġ",
        "\""
      ],
      [
        "Ġa",
        "t"
      ],
      [
        "u",
        "l"
      ],
      [
        "u",
        "s"
      ],
      [
        "igh",
        "t"
      ],
      [
        "Ġ",
        "j"
      ],
      [
        "a",
        "in"
      ],
      [
        "ro",
        "m"
      ],
      [
        "Ġw",
        "e"
      ],
      [
        "Ġh",
        "is"
      ],
      [
        "Ġ",
        "("
      ],
      [
        "g",
        "e"
      ],
      [
        "Ġ",
        "k"
      ],
      [
        "Ġ",
        "v"
      ],
      [
        "Ġc",
        "h"
      ],
      [
        "r",
        "i"
      ],
      [
        "Ġs",
        "u"
      ],
      [
        "p",
        "e"
      ],
      [
        "Ġc",
        "om"
      ],
      [
        "i",
        "x"
      ],
      [
        "es",
        "t"
      ],
      [
        "o",
        "d"
      ],
      [
        "er",
        "s"
      ],
      [
        "re",
        "e"
      ],
      [
        "Ġf",
        "rom"
      ],
      [
        "v",
        "en"
      ],
      [
        "u",
        "m"
      ],
      [
        "il",
        "l"
      ],
      [
        "Ġp",
        "ro"
      ],
      [
        "l",
        "d"
      ],
      [
        "o",
        "s"
      ],
      [
        "ic",
        "h"
      ],
      [
        "Ġn",
        "e"
      ],
      [
        "at",
        "e"
      ],
      [
        "is",
        "t"
      ],
      [
        "Ġo",
        "r"
      ],
      [
        "the",
        "r"
      ],
      [
        "ent",
        "y"
      ],
      [
        "re",
        "s"
      ],
      [
        "u",
        "n"
      ],
      [
        "e",
        "t"
      ],
      [
        "q",
        "u"
      ],
      [
        "Ġ",
        "y"
      ],
      [
        "Ġs",
        "h"
      ],
      [
        "Ġun",
        "k"
      ],
      [
        "Ġs",
        "ix"
      ],
      [
        "a",
        "p"
      ],
      [
        "o",
        "re"
      ],
      [
        "a",
        "k"
      ],
      [
        "al",
        "l"
      ],
      [
        "o",
        "p"
      ],
      [
        "Ġe",
        "x"
      ],
      [
        "i",
        "es"
      ],
      [
        "Ġwe",
        "re"
      ],
      [
        "ar",
        "d"
      ],
      [
        "a",
        "b"
      ],
      [
        "Ġ",
        "le"
      ],
      [
        "g",
        "h"
      ],
      [
        "Ġwh",
        "ich"
      ],
      [
        "es",
        "s"
      ],
      [
        "Ġa",
        "r"
      ],
      [
        "m",
        "ent"
      ],
      [
        "b",
        "er"
      ],
      [
        "Ġn",
        "ot"
      ],
      [
        "Ġp",
        "l"
      ],
      [
        "an",
        "t"
      ],
      [
        "ar",
        "t"
      ],
      [
        "i",
        "v"
      ],
      [
        "it",
        "y"
      ],
      [
        "i",
        "e"
      ],
      [
        "Ġa",
        "re"
      ],
      [
        "Ġf",
        "our"
      ],
      [
        "am",
        "e"
      ],
      [
        "a",
        "g"
      ],
      [
        "on",
        "g"
      ],
      [
        "u",
        "d"
      ],
      [
        "or",
        "t"
      ],
      [
        "Ġh",
        "ad"
      ],
      [
        "o",
        "c"
      ],
      [
        "on",
        "e"
      ],
      [
        "i",
        "p"
      ],
      [
        "a",
        "ve"
      ],
      [
        "at",
        "ed"
      ],
      [
        "e",
        "m"
      ],
      [
        "Ġth",
        "ree"
      ],
      [
        "Ġe",
        "ight"
      ],
      [
        "Ġt",
        "r"
      ],
      [
        "Ġf",
        "ive"
      ],
      [
        "ou",
        "gh"
      ],
      [
        "i",
        "an"
      ],
      [
        "te",
        "en"
      ],
      [
        "as",
        "t"
      ],
      [
        "Ġb",
        "ut"
      ],
      [
        "ac",
        "k"
      ],
      [
        "u",
        "st"
      ],
      [
        "Ġ",
        "ro"
      ],
      [
        "a",
        "v"
      ],
      [
        "ou",
        "nd"
      ],
      [
        "o",
        "st"
      ],
      [
        "ou",
        "ld"
      ],
      [
        "al",
        "ly"
      ],
      [
        "Ġw",
        "he"
      ],
      [
        "c",
        "l"
      ],
      [
        "Ġtw",
        "enty"
      ],
      [
        "or",
        "d"
      ],
      [
        "t",
        "w"
      ],
      [
        "p",
        "p"
      ],
      [
        "id",
        "e"
      ],
      [
        "Ġth",
        "ir"
      ],
      [
        "ar",
        "y"
      ],
      [
        "Ġthe",
        "ir"
      ],
      [
        "ou",
        "n"
      ],
      [
        "Ġal",
        "l"
      ],
      [
        "i",
        "a"
      ],
      [
        "f",
        "e"
      ],
      [
        "Ġwh",
        "o"
      ],
      [
        "r",
        "it"
      ],
      [
        "Ġa",
        "d"
      ],
      [
        "Ġse",
        "ven"
      ],
      [
        "s",
        "o"
      ],
      [
        "u",
        "re"
      ],
      [
        "om",
        "e"
      ],
      [
        "Ġm",
        "an"
      ],
      [
        "Ġ",
        "en"
      ],
      [
        "Ġth",
        "is"
      ],
      [
        "Ġthe",
        "y"
      ],
      [
        "Ġc",
        "l"
      ],
      [
        "Ġa",
        "b"
      ],
      [
        "ct",
        "ion"
      ],
      [
        "Ġa",
        "f"
      ],
      [
        "Ġw",
        "or"
      ],
      [
        "re",
        "n"
      ],
      [
        "Ġh",
        "ave"
      ],
      [
        "t",
        "o"
      ],
      [
        "Ġf",
        "ir"
      ],
      [
        "el",
        "l"
      ],
      [
        "c",
        "c"
      ],
      [
        "Ġhe",
        "r"
      ],
      [
        "ou",
        "t"
      ],
      [
        "Ġs",
        "c"
      ],
      [
        "p",
        "er"
      ],
      [
        "is",
        "h"
      ],
      [
        "m",
        "an"
      ],
      [
        "Ġfir",
        "st"
      ],
      [
        "p",
        "t"
      ],
      [
        "Ġf",
        "if"
      ],
      [
        "i",
        "al"
      ],
      [
        "he",
        "r"
      ],
      [
        "Ġb",
        "o"
      ],
      [
        "r",
        "a"
      ],
      [
        "p",
        "l"
      ],
      [
        "Ġn",
        "o"
      ],
      [
        "Ġcon",
        "t"
      ],
      [
        "ig",
        "n"
      ],
      [
        "it",
        "ion"
      ],
      [
        "as",
        "s"
      ],
      [
        "a",
        "ge"
      ],
      [
        "Ġ",
        "'"
      ],
      [
        "Ġal",
        "so"
      ],
      [
        "Ġm",
        "e"
      ],
      [
        "Ġp",
        "er"
      ],
      [
        "k",
        "e"
      ],
      [
        "i",
        "re"
      ],
      [
        "Ġu",
        "s"
      ],
      [
        "Ġit",
        "s"
      ],
      [
        "Ġs",
        "p"
      ],
      [
        "Ġt",
        "e"
      ],
      [
        "r",
        "u"
      ],
      [
        "Ġa",
        "m"
      ],
      [
        "Ġh",
        "im"
      ],
      [
        "Ġcom",
        "p"
      ],
      [
        "im",
        "e"
      ],
      [
        "Ġg",
        "r"
      ],
      [
        "e",
        "ar"
      ],
      [
        "Ġa",
        "g"
      ],
      [
        "u",
        "e"
      ],
      [
        "f",
        "or"
      ],
      [
        "Ġne",
        "w"
      ],
      [
        "Ġg",
        "o"
      ],
      [
        "ic",
        "al"
      ],
      [
        "at",
        "er"
      ],
      [
        "r",
        "y"
      ],
      [
        "u",
        "b"
      ],
      [
        "on",
        "d"
      ],
      [
        "he",
        "d"
      ],
      [
        "Ġh",
        "as"
      ],
      [
        "Ġo",
        "ther"
      ],
      [
        "Ġd",
        "is"
      ],
      [
        "Ġcom",
        "m"
      ],
      [
        "o",
        "k"
      ],
      [
        "Ġm",
        "ar"
      ],
      [
        "Ġre",
        "s"
      ],
      [
        "Ġf",
        "e"
      ],
      [
        "t",
        "s"
      ],
      [
        "i",
        "le"
      ],
      [
        "t",
        "ed"
      ],
      [
        "Ġbe",
        "en"
      ],
      [
        "in",
        "d"
      ],
      [
        "Ġ",
        "i"
      ],
      [
        "o",
        "g"
      ],
      [
        "Ġbe",
        "c"
      ],
      [
        "Ġs",
        "er"
      ],
      [
        "Ġre",
        "c"
      ],
      [
        "ic",
        "e"
      ],
      [
        "d",
        "u"
      ],
      [
        "ac",
        "e"
      ],
      [
        "an",
        "s"
      ],
      [
        "ow",
        "n"
      ],
      [
        "a",
        "u"
      ],
      [
        "Ġ",
        "im"
      ],
      [
        "Ġaf",
        "ter"
      ],
      [
        "an",
        "ce"
      ],
      [
        "Ġthe",
        "m"
      ],
      [
        "Ġs",
        "o"
      ],
      [
        "Ġd",
        "es"
      ],
      [
        "Ġe",
        "igh"
      ],
      [
        "Ġu",
        "p"
      ],
      [
        "v",
        "ed"
      ],
      [
        "Ġthir",
        "ty"
      ],
      [
        "en",
        "ce"
      ],
      [
        "Ġp",
        "art"
      ],
      [
        "w",
        "n"
      ],
      [
        "Ġo",
        "ver"
      ],
      [
        "i",
        "z"
      ],
      [
        "Ġs",
        "he"
      ],
      [
        "Ġo",
        "ut"
      ],
      [
        "Ġse",
        "v"
      ],
      [
        "Ġnine",
        "ty"
      ],
      [
        "i",
        "b"
      ],
      [
        "ol",
        "l"
      ],
      [
        "ac",
        "h"
      ],
      [
        "e",
        "en"
      ],
      [
        "Ġw",
        "ould"
      ],
      [
        "Ġc",
        "an"
      ],
      [
        "ad",
        "e"
      ],
      [
        "ur",
        "ing"
      ],
      [
        "Ġn",
        "or"
      ],
      [
        "n",
        "e"
      ],
      [
        "ion",
        "s"
      ],
      [
        "Ġfor",
        "ty"
      ],
      [
        "ac",
        "t"
      ],
      [
        "Ġb",
        "r"
      ],
      [
        "Ġc",
        "o"
      ],
      [
        "Ġp",
        "re"
      ],
      [
        "ation",
        "s"
      ],
      [
        "it",
        "e"
      ],
      [
        "Ġwhe",
        "n"
      ],
      [
        "Ġpl",
        "ay"
      ],
      [
        "cl",
        "ud"
      ],
      [
        "Ġin",
        "to"
      ],
      [
        "Ġof",
        "f"
      ],
      [
        "Ġe",
        "le"
      ],
      [
        "o",
        "se"
      ],
      [
        "or",
        "y"
      ],
      [
        "Ġfif",
        "ty"
      ],
      [
        "Ġm",
        "ore"
      ],
      [
        "Ġs",
        "pe"
      ],
      [
        "l",
        "and"
      ],
      [
        "ab",
        "le"
      ],
      [
        "Ġy",
        "ear"
      ],
      [
        "Ġm",
        "o"
      ],
      [
        "Ġt",
        "ime"
      ],
      [
        "res",
        "s"
      ],
      [
        "nd",
        "er"
      ],
      [
        "c",
        "ed"
      ],
      [
        "a",
        "il"
      ],
      [
        "Ġ",
        "qu"
      ],
      [
        "Ġa",
        "p"
      ],
      [
        "Ġp",
        "r"
      ],
      [
        "ing",
        "s"
      ],
      [
        "at",
        "es"
      ],
      [
        "a",
        "re"
      ],
      [
        "se",
        "l"
      ],
      [
        "z",
        "er"
      ],
      [
        "w",
        "ard"
      ],
      [
        ".",
        "\""
      ],
      [
        "Ġin",
        "d"
      ],
      [
        "ur",
        "n"
      ],
      [
        "Ġthe",
        "re"
      ],
      [
        "an",
        "g"
      ],
      [
        "ol",
        "d"
      ],
      [
        "k",
        "s"
      ],
      [
        "en",
        "s"
      ],
      [
        "\"",
        "."
      ],
      [
        "re",
        "at"
      ],
      [
        "Ġp",
        "e"
      ],
      [
        "ver",
        "s"
      ],
      [
        "Ġf",
        "l"
      ],
      [
        "a",
        "w"
      ],
      [
        "ak",
        "e"
      ],
      [
        ")",
        ","
      ],
      [
        "c",
        "es"
      ],
      [
        "r",
        "ic"
      ],
      [
        "Ġse",
        "c"
      ],
      [
        "i",
        "ed"
      ],
      [
        "f",
        "f"
      ],
      [
        "Ġp",
        "ar"
      ],
      [
        "Ġin",
        "clud"
      ],
      [
        "Ġt",
        "en"
      ],
      [
        "Ġs",
        "ome"
      ],
      [
        "as",
        "e"
      ],
      [
        "w",
        "ay"
      ],
      [
        "zer",
        "o"
      ],
      [
        "ve",
        "l"
      ],
      [
        "ul",
        "t"
      ],
      [
        "Ġd",
        "o"
      ],
      [
        "l",
        "es"
      ],
      [
        "Ġsix",
        "ty"
      ],
      [
        "o",
        "in"
      ],
      [
        "Ġeigh",
        "ty"
      ],
      [
        "as",
        "on"
      ],
      [
        "Ġth",
        "an"
      ],
      [
        "Ġfor",
        "m"
      ],
      [
        "Ġre",
        "p"
      ],
      [
        "Ġsev",
        "enty"
      ],
      [
        "l",
        "l"
      ],
      [
        "as",
        "ed"
      ],
      [
        "Ġm",
        "ay"
      ],
      [
        "m",
        "ber"
      ],
      [
        "Ġb",
        "l"
      ],
      [
        "i",
        "ous"
      ],
      [
        "am",
        "p"
      ],
      [
        "Ġf",
        "il"
      ],
      [
        "f",
        "ore"
      ],
      [
        "Ġon",
        "ly"
      ],
      [
        "Ġw",
        "ar"
      ],
      [
        "ct",
        "ed"
      ],
      [
        "it",
        "ed"
      ],
      [
        "Ġch",
        "ar"
      ],
      [
        "Ġcon",
        "s"
      ],
      [
        "Ġw",
        "ill"
      ],
      [
        "or",
        "s"
      ],
      [
        "Ġe",
        "ar"
      ],
      [
        "Ġin",
        "ter"
      ],
      [
        "Ġag",
        "ain"
      ],
      [
        "t",
        "ain"
      ],
      [
        "il",
        "d"
      ],
      [
        "Ġre",
        "m"
      ],
      [
        "Ġs",
        "ou"
      ],
      [
        "Ġk",
        "n"
      ],
      [
        "Ġm",
        "ost"
      ],
      [
        "Ġc",
        "ol"
      ],
      [
        "a",
        "id"
      ],
      [
        "Ġfil",
        "m"
      ],
      [
        "Ġu",
        "nder"
      ],
      [
        "Ġc",
        "oun"
      ],
      [
        "ri",
        "b"
      ],
      [
        "Ġf",
        "in"
      ],
      [
        "ver",
        "y"
      ],
      [
        "Ġg",
        "en"
      ],
      [
        "Ġth",
        "r"
      ],
      [
        "Ġc",
        "ent"
      ],
      [
        "o",
        "od"
      ],
      [
        ")",
        "."
      ],
      [
        "c",
        "k"
      ],
      [
        "Ġe",
        "m"
      ],
      [
        "ic",
        "k"
      ],
      [
        "is",
        "s"
      ],
      [
        "Ġe",
        "v"
      ],
      [
        "Ġab",
        "out"
      ],
      [
        "i",
        "ke"
      ],
      [
        "Ġd",
        "uring"
      ],
      [
        "at",
        "h"
      ],
      [
        "oll",
        "ow"
      ],
      [
        "Ġre",
        "g"
      ],
      [
        "Ġa",
        "cc"
      ],
      [
        "Ġc",
        "ar"
      ],
      [
        "on",
        "s"
      ],
      [
        "ter",
        "s"
      ],
      [
        "ub",
        "l"
      ],
      [
        "Ġsu",
        "b"
      ],
      [
        "Ġa",
        "ct"
      ],
      [
        "g",
        "an"
      ],
      [
        "Ġg",
        "ame"
      ],
      [
        "p",
        "h"
      ],
      [
        "al",
        "s"
      ],
      [
        "Ġf",
        "r"
      ],
      [
        "at",
        "t"
      ],
      [
        "Ġs",
        "y"
      ],
      [
        "f",
        "t"
      ],
      [
        "Ġwor",
        "k"
      ],
      [
        "Ġas",
        "s"
      ],
      [
        "tw",
        "o"
      ],
      [
        "Ġwh",
        "ile"
      ],
      [
        "Ġp",
        "os"
      ],
      [
        "Ġa",
        "pp"
      ],
      [
        "Ġb",
        "u"
      ],
      [
        "Ġp",
        "h"
      ],
      [
        "Ġsu",
        "ch"
      ],
      [
        "Ġe",
        "nd"
      ],
      [
        "\"",
        ","
      ],
      [
        "Ġl",
        "o"
      ],
      [
        "Ġs",
        "ong"
      ],
      [
        "Ġthe",
        "n"
      ],
      [
        "h",
        "ip"
      ],
      [
        "Ġbe",
        "tw"
      ],
      [
        "Ġwhe",
        "re"
      ],
      [
        "Ġn",
        "um"
      ],
      [
        "ic",
        "t"
      ],
      [
        "Ġim",
        "p"
      ],
      [
        "Ġbetw",
        "een"
      ],
      [
        "Ġthr",
        "ough"
      ],
      [
        "Ġp",
        "res"
      ],
      [
        "Ġre",
        "l"
      ],
      [
        "Ġy",
        "ou"
      ],
      [
        "Ġd",
        "ay"
      ],
      [
        "Ġ",
        ","
      ],
      [
        "Ġa",
        "c"
      ],
      [
        "Ġpro",
        "du"
      ],
      [
        "Ġan",
        "y"
      ],
      [
        "Ġm",
        "ade"
      ],
      [
        "Ġat",
        "t"
      ],
      [
        "Ġbe",
        "ing"
      ],
      [
        "j",
        "e"
      ],
      [
        "ent",
        "s"
      ],
      [
        "t",
        "on"
      ],
      [
        "Ġre",
        "t"
      ],
      [
        "er",
        "ic"
      ],
      [
        "Ġh",
        "igh"
      ],
      [
        "Ġl",
        "ater"
      ],
      [
        "Ġsec",
        "ond"
      ],
      [
        "Ġm",
        "us"
      ],
      [
        "a",
        "f"
      ],
      [
        "ul",
        "ar"
      ],
      [
        "t",
        "en"
      ],
      [
        "Ġen",
        "g"
      ],
      [
        "n",
        "ing"
      ],
      [
        "ie",
        "w"
      ],
      [
        "ation",
        "al"
      ],
      [
        "Ġb",
        "ro"
      ],
      [
        "Ġf",
        "ollow"
      ],
      [
        "Ġh",
        "ow"
      ],
      [
        "Ġbe",
        "fore"
      ],
      [
        "Ġm",
        "on"
      ],
      [
        "Ġ",
        "ent"
      ],
      [
        "Ġa",
        "u"
      ],
      [
        "Ġwor",
        "ld"
      ],
      [
        "Ġin",
        "c"
      ],
      [
        "Ġrec",
        "ord"
      ],
      [
        "Ġar",
        "m"
      ],
      [
        "Ġm",
        "in"
      ],
      [
        "au",
        "se"
      ],
      [
        "Ġre",
        "le"
      ],
      [
        "is",
        "e"
      ],
      [
        "Ġe",
        "p"
      ],
      [
        "for",
        "m"
      ],
      [
        "Ġc",
        "all"
      ],
      [
        "at",
        "ing"
      ],
      [
        "Ġ",
        "if"
      ],
      [
        "is",
        "hed"
      ],
      [
        "Ġm",
        "a"
      ],
      [
        "Ġal",
        "b"
      ],
      [
        "Ġo",
        "b"
      ],
      [
        "e",
        "ver"
      ],
      [
        "Ġa",
        "ir"
      ],
      [
        "am",
        "es"
      ],
      [
        "Ġthe",
        "se"
      ],
      [
        "Ġj",
        "o"
      ],
      [
        "sel",
        "f"
      ],
      [
        "Ġsu",
        "pp"
      ],
      [
        "il",
        "y"
      ],
      [
        "is",
        "ion"
      ],
      [
        "r",
        "al"
      ],
      [
        "Ġ",
        "ed"
      ],
      [
        "Ġse",
        "ason"
      ],
      [
        "Ġspe",
        "c"
      ],
      [
        "l",
        "ed"
      ],
      [
        "if",
        "ic"
      ],
      [
        "Ġg",
        "u"
      ],
      [
        "Ġap",
        "pe"
      ],
      [
        "Ġagain",
        "st"
      ],
      [
        "Ġp",
        "ubl"
      ],
      [
        "Ġl",
        "ar"
      ],
      [
        "Ġs",
        "ur"
      ],
      [
        "Ġs",
        "m"
      ],
      [
        "Ġc",
        "ap"
      ],
      [
        "Ġw",
        "ell"
      ],
      [
        "Ġw",
        "rit"
      ],
      [
        "u",
        "al"
      ],
      [
        "Ġnor",
        "th"
      ],
      [
        "id",
        "ent"
      ],
      [
        "s",
        "on"
      ],
      [
        "el",
        "ve"
      ],
      [
        "Ġst",
        "ate"
      ],
      [
        "Ġs",
        "ing"
      ],
      [
        "Ġs",
        "aid"
      ],
      [
        "i",
        "o"
      ],
      [
        ".",
        "."
      ],
      [
        "in",
        "ce"
      ],
      [
        "Ġbe",
        "l"
      ],
      [
        "Ġte",
        "am"
      ],
      [
        "g",
        "r"
      ],
      [
        "ter",
        "n"
      ],
      [
        "s",
        "s"
      ],
      [
        "Ġsh",
        "ow"
      ],
      [
        "o",
        "ther"
      ],
      [
        "at",
        "her"
      ],
      [
        "Ġgen",
        "er"
      ],
      [
        "Ġwh",
        "at"
      ],
      [
        "if",
        "e"
      ],
      [
        "Ġbo",
        "th"
      ],
      [
        "Ġp",
        "ol"
      ],
      [
        "Ġl",
        "oc"
      ],
      [
        "ow",
        "er"
      ],
      [
        "Ġyear",
        "s"
      ],
      [
        "i",
        "el"
      ],
      [
        "c",
        "he"
      ],
      [
        "Ġm",
        "at"
      ],
      [
        "Ġalb",
        "um"
      ],
      [
        "Ġin",
        "v"
      ],
      [
        "Ġs",
        "ch"
      ],
      [
        "iv",
        "ed"
      ],
      [
        "Ġam",
        "eric"
      ],
      [
        "a",
        "ir"
      ],
      [
        "od",
        "e"
      ],
      [
        "Ġman",
        "y"
      ],
      [
        "al",
        "e"
      ],
      [
        "Ġus",
        "ed"
      ],
      [
        "ic",
        "s"
      ],
      [
        "Ġo",
        "p"
      ],
      [
        "fe",
        "ren"
      ],
      [
        "f",
        "ul"
      ],
      [
        "u",
        "p"
      ],
      [
        "Ġf",
        "ound"
      ],
      [
        "Ġad",
        "d"
      ],
      [
        "at",
        "ive"
      ],
      [
        "Ġde",
        "c"
      ],
      [
        "t",
        "ing"
      ],
      [
        "Ġd",
        "id"
      ],
      [
        "Ġl",
        "ong"
      ],
      [
        "Ġin",
        "st"
      ],
      [
        "ment",
        "s"
      ],
      [
        "Ġc",
        "ity"
      ],
      [
        "Ġm",
        "y"
      ],
      [
        "e",
        "p"
      ],
      [
        "ur",
        "y"
      ],
      [
        "it",
        "s"
      ],
      [
        "Ġm",
        "em"
      ],
      [
        "Ġtw",
        "elve"
      ],
      [
        "o",
        "ol"
      ],
      [
        "Ġm",
        "u"
      ],
      [
        "or",
        "n"
      ],
      [
        "Ġnum",
        "ber"
      ],
      [
        "ver",
        "n"
      ],
      [
        "ar",
        "s"
      ],
      [
        "b",
        "e"
      ],
      [
        "Ġo",
        "wn"
      ],
      [
        "w",
        "h"
      ],
      [
        "ough",
        "t"
      ],
      [
        "Ġd",
        "if"
      ],
      [
        "Ġep",
        "is"
      ],
      [
        "je",
        "ct"
      ],
      [
        "Ġst",
        "ud"
      ],
      [
        "b",
        "y"
      ],
      [
        "Ġd",
        "ist"
      ],
      [
        "Ġex",
        "p"
      ],
      [
        "Ġchar",
        "ac"
      ],
      [
        "an",
        "k"
      ],
      [
        "Ġb",
        "att"
      ],
      [
        "o",
        "y"
      ],
      [
        "Ġse",
        "t"
      ],
      [
        "Ġsou",
        "th"
      ],
      [
        "is",
        "ed"
      ],
      [
        "Ġs",
        "ame"
      ],
      [
        "Ġle",
        "ad"
      ],
      [
        "Ġre",
        "ce"
      ],
      [
        "Ġser",
        "ies"
      ],
      [
        "ver",
        "al"
      ],
      [
        "Ġsh",
        "ip"
      ],
      [
        "ou",
        "p"
      ],
      [
        "Ġs",
        "l"
      ],
      [
        "Ġin",
        "f"
      ],
      [
        "Ġb",
        "ack"
      ],
      [
        "Ġc",
        "ould"
      ],
      [
        "Ġs",
        "im"
      ],
      [
        "Ġt",
        "er"
      ],
      [
        "Ġl",
        "ike"
      ],
      [
        "Ġin",
        "t"
      ],
      [
        "Ġm",
        "ill"
      ],
      [
        "ig",
        "in"
      ],
      [
        "i",
        "red"
      ],
      [
        "an",
        "e"
      ],
      [
        "Ġm",
        "ain"
      ],
      [
        "Ġm",
        "en"
      ],
      [
        "Ġc",
        "re"
      ],
      [
        "u",
        "res"
      ],
      [
        "Ġbec",
        "ame"
      ],
      [
        "an",
        "ge"
      ],
      [
        "it",
        "ies"
      ],
      [
        "op",
        "le"
      ],
      [
        "i",
        "er"
      ],
      [
        "Ġd",
        "r"
      ],
      [
        "Ġde",
        "p"
      ],
      [
        "v",
        "es"
      ],
      [
        "ri",
        "e"
      ],
      [
        "th",
        "ough"
      ],
      [
        "Ġg",
        "reat"
      ],
      [
        "Ġele",
        "ven"
      ],
      [
        "Ġd",
        "ire"
      ],
      [
        "vel",
        "op"
      ],
      [
        "d",
        "er"
      ],
      [
        "Ġmus",
        "ic"
      ],
      [
        "Ġse",
        "p"
      ],
      [
        "Ġp",
        "ass"
      ],
      [
        "Ġar",
        "t"
      ],
      [
        "Ġre",
        "v"
      ],
      [
        "in",
        "es"
      ],
      [
        "a",
        "red"
      ],
      [
        "c",
        "o"
      ],
      [
        "te",
        "nd"
      ],
      [
        "he",
        "n"
      ],
      [
        "Ġp",
        "ers"
      ],
      [
        "s",
        "u"
      ],
      [
        "Ġgo",
        "vern"
      ],
      [
        "Ġc",
        "ro"
      ],
      [
        "ib",
        "le"
      ],
      [
        "Ġun",
        "ited"
      ],
      [
        "i",
        "ver"
      ],
      [
        "Ġcont",
        "in"
      ],
      [
        "t",
        "il"
      ],
      [
        "or",
        "k"
      ],
      [
        "ian",
        "s"
      ],
      [
        "h",
        "n"
      ],
      [
        "ak",
        "ing"
      ],
      [
        "Ġtr",
        "ans"
      ],
      [
        "ain",
        "ed"
      ],
      [
        "Ġb",
        "rit"
      ],
      [
        "c",
        "er"
      ],
      [
        "Ġm",
        "il"
      ],
      [
        "Ġd",
        "iv"
      ],
      [
        "Ġor",
        "igin"
      ],
      [
        "Ġpe",
        "ople"
      ],
      [
        "w",
        "e"
      ],
      [
        "Ġse",
        "veral"
      ],
      [
        "f",
        "ive"
      ],
      [
        "ous",
        "e"
      ],
      [
        "m",
        "e"
      ],
      [
        "ce",
        "pt"
      ],
      [
        "Ġst",
        "r"
      ],
      [
        "le",
        "y"
      ],
      [
        "Ġde",
        "velop"
      ],
      [
        "Ġinclud",
        "ing"
      ],
      [
        "Ġp",
        "op"
      ],
      [
        "Ġpro",
        "v"
      ],
      [
        "Ġk",
        "ing"
      ],
      [
        "Ġ",
        "est"
      ],
      [
        "Ġst",
        "ates"
      ],
      [
        "Ġth",
        "ose"
      ],
      [
        "Ġret",
        "urn"
      ],
      [
        "Ġd",
        "own"
      ],
      [
        "a",
        "z"
      ],
      [
        "in",
        "s"
      ],
      [
        "Ġbec",
        "ause"
      ],
      [
        "iel",
        "d"
      ],
      [
        "Ġcon",
        "st"
      ],
      [
        "u",
        "ally"
      ],
      [
        "Ġfif",
        "teen"
      ],
      [
        "Ġp",
        "o"
      ],
      [
        "av",
        "ing"
      ],
      [
        "ro",
        "p"
      ],
      [
        "g",
        "er"
      ],
      [
        "th",
        "ing"
      ],
      [
        "im",
        "es"
      ],
      [
        "af",
        "ter"
      ],
      [
        "Ġepis",
        "ode"
      ],
      [
        "oc",
        "k"
      ],
      [
        "r",
        "on"
      ],
      [
        "s",
        "ix"
      ],
      [
        "Ġp",
        "oin"
      ],
      [
        "Ġcall",
        "ed"
      ],
      [
        "ar",
        "k"
      ],
      [
        "s",
        "h"
      ],
      [
        "Ġcomp",
        "le"
      ],
      [
        "Ġ",
        "z"
      ],
      [
        "Ġl",
        "and"
      ],
      [
        "Ġk",
        "e"
      ],
      [
        "Ġj",
        "ust"
      ],
      [
        "th",
        "is"
      ],
      [
        "c",
        "ess"
      ],
      [
        "an",
        "n"
      ],
      [
        "os",
        "ed"
      ],
      [
        "at",
        "ure"
      ],
      [
        "i",
        "vers"
      ],
      [
        "Ġs",
        "ign"
      ],
      [
        "Ġre",
        "f"
      ],
      [
        "Ġs",
        "ay"
      ],
      [
        "un",
        "e"
      ],
      [
        "id",
        "ed"
      ],
      [
        "fe",
        "ct"
      ],
      [
        "Ġbe",
        "gan"
      ],
      [
        "Ġgr",
        "oup"
      ],
      [
        "Ġc",
        "our"
      ],
      [
        "d",
        "e"
      ],
      [
        "Ġc",
        "a"
      ],
      [
        "c",
        "on"
      ],
      [
        "Ġm",
        "od"
      ],
      [
        "Ġf",
        "am"
      ],
      [
        "Ġdes",
        "ign"
      ],
      [
        "y",
        "s"
      ],
      [
        "m",
        "in"
      ],
      [
        "Ġr",
        "un"
      ],
      [
        "ol",
        "og"
      ],
      [
        "Ġthir",
        "teen"
      ],
      [
        "Ġne",
        "ar"
      ],
      [
        "cc",
        "ess"
      ],
      [
        "Ġm",
        "ed"
      ],
      [
        "Ġm",
        "et"
      ],
      [
        "Ġdes",
        "c"
      ],
      [
        "Ġc",
        "or"
      ],
      [
        "Ġu",
        "se"
      ],
      [
        "b",
        "o"
      ],
      [
        "in",
        "k"
      ],
      [
        "Ġkn",
        "own"
      ],
      [
        "Ġad",
        "v"
      ],
      [
        "Ġear",
        "ly"
      ],
      [
        "Ġan",
        "other"
      ],
      [
        "is",
        "m"
      ],
      [
        "Ġpre",
        "v"
      ],
      [
        "i",
        "ally"
      ],
      [
        "ist",
        "s"
      ],
      [
        "ro",
        "w"
      ],
      [
        "n",
        "er"
      ],
      [
        "Ġop",
        "en"
      ],
      [
        "Ġo",
        "per"
      ],
      [
        "b",
        "le"
      ],
      [
        "Ġc",
        "rit"
      ],
      [
        "r",
        "is"
      ],
      [
        "Ġoff",
        "ic"
      ],
      [
        "Ġg",
        "er"
      ],
      [
        "Ġe",
        "l"
      ],
      [
        "ut",
        "ion"
      ],
      [
        "Ġun",
        "til"
      ],
      [
        "iz",
        "ed"
      ],
      [
        "Ġfour",
        "teen"
      ],
      [
        "Ġcon",
        "f"
      ],
      [
        "te",
        "m"
      ],
      [
        "Ġser",
        "v"
      ],
      [
        "Ġw",
        "in"
      ],
      [
        "x",
        "t"
      ],
      [
        "ac",
        "ed"
      ],
      [
        "Ġhis",
        "t"
      ],
      [
        "th",
        "ree"
      ],
      [
        "Ġa",
        "ust"
      ],
      [
        "Ġe",
        "ach"
      ],
      [
        "ward",
        "s"
      ],
      [
        "Ġg",
        "re"
      ],
      [
        "Ġst",
        "e"
      ],
      [
        "i",
        "am"
      ],
      [
        "Ġsch",
        "ool"
      ],
      [
        "Ġan",
        "n"
      ],
      [
        "Ġw",
        "ay"
      ],
      [
        "st",
        "em"
      ],
      [
        "Ġp",
        "ort"
      ],
      [
        "or",
        "m"
      ],
      [
        "re",
        "st"
      ],
      [
        "u",
        "red"
      ],
      [
        "ap",
        "p"
      ],
      [
        "Ġal",
        "ong"
      ],
      [
        "g",
        "g"
      ],
      [
        "b",
        "ers"
      ],
      [
        "n",
        "ine"
      ],
      [
        "Ġgo",
        "od"
      ],
      [
        "an",
        "c"
      ],
      [
        "Ġl",
        "ife"
      ],
      [
        "an",
        "y"
      ],
      [
        "Ġh",
        "ar"
      ],
      [
        "Ġrele",
        "ased"
      ],
      [
        "u",
        "c"
      ],
      [
        "Ġmu",
        "ch"
      ],
      [
        "f",
        "our"
      ],
      [
        "Ġin",
        "s"
      ],
      [
        "i",
        "um"
      ],
      [
        "Ġo",
        "cc"
      ],
      [
        "Ġde",
        "f"
      ],
      [
        "Ġb",
        "est"
      ],
      [
        "Ġw",
        "est"
      ],
      [
        "Ġjo",
        "hn"
      ],
      [
        "Ġcoun",
        "t"
      ],
      [
        "Ġhe",
        "ad"
      ],
      [
        "Ġt",
        "ri"
      ],
      [
        "ul",
        "l"
      ],
      [
        "Ġameric",
        "an"
      ],
      [
        "Ġcol",
        "le"
      ],
      [
        "Ġre",
        "st"
      ],
      [
        "Ġsu",
        "ccess"
      ],
      [
        "Ġn",
        "ational"
      ],
      [
        "Ġl",
        "aw"
      ],
      [
        "Ġsy",
        "stem"
      ],
      [
        "am",
        "ed"
      ],
      [
        "Ġp",
        "ower"
      ],
      [
        "Ġmill",
        "ion"
      ],
      [
        "ut",
        "e"
      ],
      [
        "Ġsh",
        "ould"
      ],
      [
        "Ġma",
        "j"
      ],
      [
        "Ġde",
        "m"
      ],
      [
        "Ġn",
        "ow"
      ],
      [
        "Ġto",
        "ok"
      ],
      [
        "Ġb",
        "ar"
      ],
      [
        "n",
        "ess"
      ],
      [
        "Ġex",
        "t"
      ],
      [
        "Ġhow",
        "ever"
      ],
      [
        "pe",
        "ct"
      ],
      [
        "Ġhe",
        "l"
      ],
      [
        "Ġcharac",
        "ter"
      ],
      [
        "Ġp",
        "ri"
      ],
      [
        "a",
        "h"
      ],
      [
        "Ġwe",
        "e"
      ],
      [
        "Ġlar",
        "ge"
      ],
      [
        "g",
        "ust"
      ],
      [
        "re",
        "t"
      ],
      [
        "Ġpl",
        "ace"
      ],
      [
        "Ġpubl",
        "ic"
      ],
      [
        "Ġatt",
        "ack"
      ],
      [
        "Ġs",
        "ince"
      ],
      [
        "Ġe",
        "ven"
      ],
      [
        "Ġl",
        "it"
      ],
      [
        "Ġfollow",
        "ing"
      ],
      [
        "Ġv",
        "ar"
      ],
      [
        "Ġdesc",
        "rib"
      ],
      [
        "t",
        "le"
      ],
      [
        "b",
        "ut"
      ],
      [
        "o",
        "ot"
      ],
      [
        "i",
        "ent"
      ],
      [
        "Ġm",
        "ake"
      ],
      [
        "i",
        "k"
      ],
      [
        "Ġger",
        "man"
      ],
      [
        "Ġcontin",
        "u"
      ],
      [
        "Ġj",
        "u"
      ],
      [
        "od",
        "y"
      ],
      [
        "Ġs",
        "w"
      ],
      [
        "te",
        "mber"
      ],
      [
        "Ġbrit",
        "ish"
      ],
      [
        "ant",
        "s"
      ],
      [
        "Ġpart",
        "ic"
      ],
      [
        "Ġl",
        "ine"
      ],
      [
        "iv",
        "es"
      ],
      [
        "Ġh",
        "ouse"
      ],
      [
        "Ġl",
        "ast"
      ],
      [
        "Ġt",
        "urn"
      ],
      [
        "Ġg",
        "l"
      ],
      [
        "Ġar",
        "ound"
      ],
      [
        "Ġro",
        "ad"
      ],
      [
        "Ġsm",
        "all"
      ],
      [
        "Ġc",
        "r"
      ],
      [
        "Ġsupp",
        "ort"
      ],
      [
        "Ġst",
        "art"
      ],
      [
        "Ġmaj",
        "or"
      ],
      [
        "Ġbo",
        "ok"
      ],
      [
        "Ġp",
        "rom"
      ],
      [
        "g",
        "in"
      ],
      [
        "Ġcomm",
        "and"
      ],
      [
        "Ġau",
        "gust"
      ],
      [
        "Ġ",
        "es"
      ],
      [
        "ate",
        "ly"
      ],
      [
        "Ġr",
        "ight"
      ],
      [
        "Ġpos",
        "s"
      ],
      [
        "il",
        "ity"
      ],
      [
        "us",
        "ed"
      ],
      [
        "Ġrece",
        "ived"
      ],
      [
        "Ġsep",
        "tember"
      ],
      [
        "en",
        "e"
      ],
      [
        "Ġb",
        "re"
      ],
      [
        "Ġ",
        "very"
      ],
      [
        "Ġbu",
        "ild"
      ],
      [
        "Ġm",
        "id"
      ],
      [
        "Ġe",
        "very"
      ],
      [
        "Ġch",
        "ild"
      ],
      [
        "Ġk",
        "m"
      ],
      [
        "Ġn",
        "ame"
      ],
      [
        "Ġo",
        "ct"
      ],
      [
        "Ġdif",
        "feren"
      ],
      [
        "Ġg",
        "e"
      ],
      [
        "ord",
        "ing"
      ],
      [
        "i",
        "ence"
      ],
      [
        "Ġh",
        "and"
      ],
      [
        "Ġrep",
        "ort"
      ],
      [
        "Ġgovern",
        "ment"
      ],
      [
        "m",
        "ed"
      ],
      [
        "Ġc",
        "amp"
      ],
      [
        "Ġd",
        "el"
      ],
      [
        "ain",
        "s"
      ],
      [
        "Ġt",
        "y"
      ],
      [
        "Ġare",
        "a"
      ],
      [
        "Ġde",
        "ath"
      ],
      [
        "Ġb",
        "and"
      ],
      [
        "Ġs",
        "oc"
      ],
      [
        "Ġo",
        "ur"
      ],
      [
        "in",
        "c"
      ],
      [
        "as",
        "h"
      ],
      [
        "o",
        "ber"
      ],
      [
        "ction",
        "s"
      ],
      [
        "Ġf",
        "ar"
      ],
      [
        "l",
        "ing"
      ],
      [
        "b",
        "r"
      ],
      [
        "Ġm",
        "ag"
      ],
      [
        "n",
        "a"
      ],
      [
        "Ġwith",
        "out"
      ],
      [
        "it",
        "her"
      ],
      [
        "Ġgener",
        "al"
      ],
      [
        "ur",
        "al"
      ],
      [
        "ct",
        "or"
      ],
      [
        "Ġc",
        "are"
      ],
      [
        "Ġfin",
        "al"
      ],
      [
        "Ġpro",
        "p"
      ],
      [
        "Ġo",
        "ld"
      ],
      [
        "m",
        "s"
      ],
      [
        "v",
        "ing"
      ],
      [
        "Ġg",
        "i"
      ],
      [
        "Ġfe",
        "at"
      ],
      [
        "Ġp",
        "ur"
      ],
      [
        "rie",
        "nd"
      ],
      [
        "Ġle",
        "ft"
      ],
      [
        "Ġsix",
        "teen"
      ],
      [
        "Ġcl",
        "ass"
      ],
      [
        "Ġaust",
        "ral"
      ],
      [
        "Ġe",
        "ast"
      ],
      [
        "os",
        "s"
      ],
      [
        "Ġse",
        "e"
      ],
      [
        "id",
        "es"
      ],
      [
        "Ġh",
        "ome"
      ],
      [
        "Ġoct",
        "ober"
      ],
      [
        "c",
        "om"
      ],
      [
        "ther",
        "n"
      ],
      [
        "Ġs",
        "k"
      ],
      [
        "Ġsing",
        "le"
      ],
      [
        "Ġmar",
        "ch"
      ],
      [
        "Ġt",
        "our"
      ],
      [
        "Ġall",
        "ow"
      ],
      [
        "ap",
        "h"
      ],
      [
        "Ġst",
        "ill"
      ],
      [
        "Ġ",
        "."
      ],
      [
        "Ġo",
        "pp"
      ],
      [
        "Ġhim",
        "self"
      ],
      [
        "ent",
        "ion"
      ],
      [
        "ain",
        "ing"
      ],
      [
        "he",
        "s"
      ],
      [
        "Ġde",
        "fe"
      ],
      [
        "Ġg",
        "ames"
      ],
      [
        "r",
        "il"
      ],
      [
        "Ġthir",
        "d"
      ],
      [
        "iss",
        "ion"
      ],
      [
        "Ġun",
        "ivers"
      ],
      [
        "Ġarm",
        "y"
      ],
      [
        "Ġcont",
        "ro"
      ],
      [
        "if",
        "ied"
      ],
      [
        "Ġe",
        "u"
      ],
      [
        "Ġle",
        "g"
      ],
      [
        "on",
        "t"
      ],
      [
        "ent",
        "ly"
      ],
      [
        "a",
        "im"
      ],
      [
        "Ġth",
        "ough"
      ],
      [
        "en",
        "g"
      ],
      [
        "Ġto",
        "wn"
      ],
      [
        "Ġh",
        "al"
      ],
      [
        "Ġsh",
        "ort"
      ],
      [
        "in",
        "a"
      ],
      [
        "Ġup",
        "on"
      ],
      [
        "Ġs",
        "qu"
      ],
      [
        "ve",
        "mber"
      ],
      [
        "Ġis",
        "land"
      ],
      [
        "l",
        "ish"
      ],
      [
        "il",
        "t"
      ],
      [
        "Ġa",
        "v"
      ],
      [
        "Ġj",
        "une"
      ],
      [
        "Ġpers",
        "on"
      ],
      [
        "us",
        "s"
      ],
      [
        "Ġk",
        "ill"
      ],
      [
        "Ġbatt",
        "le"
      ],
      [
        "Ġex",
        "pl"
      ],
      [
        "Ġkn",
        "ow"
      ],
      [
        "Ġh",
        "aving"
      ],
      [
        "Ġde",
        "ce"
      ],
      [
        "Ġmar",
        "k"
      ],
      [
        "Ġre",
        "qu"
      ],
      [
        "Ġt",
        "it"
      ],
      [
        "Ġj",
        "an"
      ],
      [
        "ag",
        "ed"
      ],
      [
        "Ġd",
        "ue"
      ],
      [
        "er",
        "n"
      ],
      [
        "Ġv",
        "ict"
      ],
      [
        "ag",
        "es"
      ],
      [
        "c",
        "y"
      ],
      [
        "n",
        "ed"
      ],
      [
        "Ġf",
        "ur"
      ],
      [
        "Ġe",
        "qu"
      ],
      [
        "Ġju",
        "ly"
      ],
      [
        "u",
        "ary"
      ],
      [
        "Ġw",
        "om"
      ],
      [
        "Ġapp",
        "ro"
      ],
      [
        "ak",
        "en"
      ],
      [
        "ra",
        "ft"
      ],
      [
        "ro",
        "te"
      ],
      [
        "Ġno",
        "vember"
      ],
      [
        "Ġappe",
        "ar"
      ],
      [
        "Ġm",
        "or"
      ],
      [
        "p",
        "ed"
      ],
      [
        "Ġs",
        "en"
      ],
      [
        "id",
        "ge"
      ],
      [
        "o",
        "red"
      ],
      [
        "ag",
        "ue"
      ],
      [
        "Ġv",
        "is"
      ],
      [
        "Ġbel",
        "ie"
      ],
      [
        "av",
        "y"
      ],
      [
        "Ġinc",
        "re"
      ],
      [
        "c",
        "ent"
      ],
      [
        "iv",
        "ing"
      ],
      [
        "Ġl",
        "a"
      ],
      [
        "m",
        "er"
      ],
      [
        "Ġp",
        "at"
      ],
      [
        "Ġw",
        "ater"
      ],
      [
        "Ġam",
        "ong"
      ],
      [
        "Ġy",
        "ork"
      ],
      [
        "Ġ",
        "vers"
      ],
      [
        "ak",
        "es"
      ],
      [
        "Ġev",
        "ent"
      ],
      [
        "Ġap",
        "ril"
      ],
      [
        "ar",
        "ch"
      ],
      [
        "Ġto",
        "p"
      ],
      [
        "f",
        "fect"
      ],
      [
        "Ġsev",
        "ent"
      ],
      [
        "Ġt",
        "imes"
      ],
      [
        "Ġcomp",
        "any"
      ],
      [
        "i",
        "us"
      ],
      [
        "Ġc",
        "ame"
      ],
      [
        "Ġd",
        "am"
      ],
      [
        "Ġt",
        "ake"
      ],
      [
        "al",
        "es"
      ],
      [
        "o",
        "f"
      ],
      [
        "Ġne",
        "ver"
      ],
      [
        "Ġfam",
        "ily"
      ],
      [
        "Ġc",
        "he"
      ],
      [
        "Ġr",
        "iver"
      ],
      [
        "Ġm",
        "ust"
      ],
      [
        "ren",
        "t"
      ],
      [
        "pe",
        "nd"
      ],
      [
        "Ġv",
        "al"
      ],
      [
        "tem",
        "pt"
      ],
      [
        "Ġ",
        "rom"
      ],
      [
        "Ġcomm",
        "on"
      ],
      [
        "Ġc",
        "le"
      ],
      [
        "ition",
        "s"
      ],
      [
        "Ġrev",
        "iew"
      ],
      [
        "r",
        "ist"
      ],
      [
        "Ġan",
        "g"
      ],
      [
        "on",
        "y"
      ],
      [
        "Ġc",
        "ur"
      ],
      [
        "Ġmon",
        "th"
      ],
      [
        "Ġst",
        "ory"
      ],
      [
        "Ġst",
        "and"
      ],
      [
        "Ġw",
        "ind"
      ],
      [
        "o",
        "v"
      ],
      [
        "Ġd",
        "est"
      ],
      [
        "Ġinclud",
        "ed"
      ],
      [
        "h",
        "ow"
      ],
      [
        "Ġc",
        "e"
      ],
      [
        "s",
        "he"
      ],
      [
        "Ġl",
        "ed"
      ],
      [
        "Ġf",
        "ore"
      ],
      [
        "tw",
        "enty"
      ],
      [
        "Ġex",
        "per"
      ],
      [
        "au",
        "gh"
      ],
      [
        "p",
        "s"
      ],
      [
        "a",
        "x"
      ],
      [
        "Ġv",
        "ide"
      ],
      [
        "Ġcent",
        "ury"
      ],
      [
        "Ġor",
        "der"
      ],
      [
        "l",
        "u"
      ],
      [
        "Ġal",
        "though"
      ],
      [
        "il",
        "ar"
      ],
      [
        "c",
        "hed"
      ],
      [
        "Ġf",
        "riend"
      ],
      [
        "Ġfor",
        "ce"
      ],
      [
        "Ġne",
        "xt"
      ],
      [
        "Ġpar",
        "k"
      ],
      [
        "Ġt",
        "em"
      ],
      [
        "it",
        "al"
      ],
      [
        "Ġpres",
        "ent"
      ],
      [
        "Ġper",
        "form"
      ],
      [
        "Ġc",
        "ast"
      ],
      [
        "Ġplay",
        "ed"
      ],
      [
        "Ġg",
        "od"
      ],
      [
        "om",
        "in"
      ],
      [
        "Ġw",
        "on"
      ],
      [
        "Ġdece",
        "mber"
      ],
      [
        "g",
        "ed"
      ],
      [
        "Ġw",
        "rote"
      ],
      [
        "i",
        "or"
      ],
      [
        "Ġre",
        "al"
      ],
      [
        "Ġinter",
        "n"
      ],
      [
        "re",
        "ad"
      ],
      [
        "Ġj",
        "oin"
      ],
      [
        "ic",
        "ally"
      ],
      [
        "Ġe",
        "ffect"
      ],
      [
        "b",
        "all"
      ],
      [
        "Ġcont",
        "r"
      ],
      [
        "Ġwith",
        "in"
      ],
      [
        "in",
        "ed"
      ],
      [
        "et",
        "s"
      ],
      [
        "Ġc",
        "al"
      ],
      [
        "Ġst",
        "ru"
      ],
      [
        "Ġtr",
        "ack"
      ],
      [
        "e",
        "red"
      ],
      [
        "Ġst",
        "orm"
      ],
      [
        "Ġeigh",
        "teen"
      ],
      [
        "Ġs",
        "old"
      ],
      [
        "Ġ",
        "ide"
      ],
      [
        "Ġjan",
        "uary"
      ],
      [
        "Ġp",
        "ost"
      ],
      [
        "Ġre",
        "pl"
      ],
      [
        "Ġs",
        "ent"
      ],
      [
        "Ġ",
        "-"
      ],
      [
        "ri",
        "ed"
      ],
      [
        "ap",
        "an"
      ],
      [
        "t",
        "ter"
      ],
      [
        "Ġcl",
        "ub"
      ],
      [
        "Ġv",
        "iew"
      ],
      [
        "Ġdescrib",
        "ed"
      ],
      [
        "Ġg",
        "un"
      ],
      [
        "og",
        "r"
      ],
      [
        "l",
        "ess"
      ],
      [
        "Ġat",
        "tempt"
      ],
      [
        "m",
        "ost"
      ],
      [
        "p",
        "ort"
      ],
      [
        "Ġdifferen",
        "t"
      ],
      [
        "ac",
        "hed"
      ],
      [
        "Ġprev",
        "ious"
      ],
      [
        "Ġd",
        "u"
      ],
      [
        "ion",
        "al"
      ],
      [
        "Ġb",
        "us"
      ],
      [
        "p",
        "or"
      ],
      [
        "Ġbl",
        "ack"
      ],
      [
        "Ġp",
        "a"
      ],
      [
        "Ġ",
        "ir"
      ],
      [
        "at",
        "s"
      ],
      [
        "ne",
        "y"
      ],
      [
        "Ġform",
        "er"
      ],
      [
        "Ġau",
        "th"
      ],
      [
        "ber",
        "t"
      ],
      [
        "Ġorigin",
        "al"
      ],
      [
        "Ġn",
        "amed"
      ],
      [
        "ro",
        "du"
      ],
      [
        "er",
        "tain"
      ],
      [
        "th",
        "ir"
      ],
      [
        "Ġl",
        "ight"
      ],
      [
        "w",
        "hen"
      ],
      [
        "Ġday",
        "s"
      ],
      [
        "Ġe",
        "as"
      ],
      [
        "Ġl",
        "ess"
      ],
      [
        "Ġs",
        "ide"
      ],
      [
        "Ġan",
        "t"
      ],
      [
        "Ġr",
        "a"
      ],
      [
        "i",
        "od"
      ],
      [
        "b",
        "ru"
      ],
      [
        "Ġor",
        "gan"
      ],
      [
        "m",
        "b"
      ],
      [
        "Ġv",
        "ir"
      ],
      [
        "i",
        "et"
      ],
      [
        "l",
        "o"
      ],
      [
        "Ġspec",
        "ies"
      ],
      [
        "Ġres",
        "p"
      ],
      [
        "Ġy",
        "oun"
      ],
      [
        "Ġadd",
        "ition"
      ],
      [
        "Ġs",
        "ound"
      ],
      [
        "'",
        "t"
      ],
      [
        "st",
        "er"
      ],
      [
        "Ġs",
        "on"
      ],
      [
        "Ġeu",
        "ro"
      ],
      [
        "Ġl",
        "ate"
      ],
      [
        "..",
        "."
      ],
      [
        "i",
        "en"
      ],
      [
        "un",
        "k"
      ],
      [
        "ot",
        "t"
      ],
      [
        "Ġpoin",
        "t"
      ],
      [
        "l",
        "er"
      ],
      [
        "ren",
        "ch"
      ],
      [
        "Ġmo",
        "ve"
      ],
      [
        "Ġof",
        "ten"
      ],
      [
        "Ġcomm",
        "un"
      ],
      [
        "Ġfe",
        "w"
      ],
      [
        "Ġj",
        "apan"
      ],
      [
        "p",
        "le"
      ],
      [
        "s",
        "er"
      ],
      [
        "Ġph",
        "il"
      ],
      [
        "tend",
        "ed"
      ],
      [
        "Ġf",
        "le"
      ],
      [
        "Ġfur",
        "ther"
      ],
      [
        "Ġdis",
        "c"
      ],
      [
        "Ġgi",
        "ven"
      ],
      [
        "id",
        "er"
      ],
      [
        "oun",
        "t"
      ],
      [
        "Ġth",
        "ings"
      ],
      [
        "Ġhe",
        "ld"
      ],
      [
        "Ġbe",
        "h"
      ],
      [
        "Ġpol",
        "it"
      ],
      [
        "u",
        "nd"
      ],
      [
        "che",
        "s"
      ],
      [
        "Ġdiv",
        "ision"
      ],
      [
        "Ġr",
        "ad"
      ],
      [
        "y",
        "al"
      ],
      [
        "t",
        "r"
      ],
      [
        "Ġsu",
        "per"
      ],
      [
        "Ġf",
        "ind"
      ],
      [
        "bru",
        "ary"
      ],
      [
        "Ġvide",
        "o"
      ],
      [
        "Ġcount",
        "ry"
      ],
      [
        "Ġle",
        "ague"
      ],
      [
        "Ġmem",
        "bers"
      ],
      [
        "r",
        "ing"
      ],
      [
        "e",
        "ight"
      ],
      [
        "o",
        "b"
      ],
      [
        "Ġb",
        "ill"
      ],
      [
        "Ġper",
        "iod"
      ],
      [
        "the",
        "y"
      ],
      [
        "Ġte",
        "le"
      ],
      [
        "Ġs",
        "ol"
      ],
      [
        "ro",
        "ss"
      ],
      [
        "Ġst",
        "ar"
      ],
      [
        "Ġch",
        "amp"
      ],
      [
        "se",
        "ven"
      ],
      [
        "ard",
        "s"
      ],
      [
        "Ġmil",
        "it"
      ],
      [
        "Ġ",
        "er"
      ],
      [
        "s",
        "c"
      ],
      [
        "Ġsim",
        "ilar"
      ],
      [
        "a",
        "ff"
      ],
      [
        "for",
        "man"
      ],
      [
        "n",
        "ot"
      ],
      [
        "Ġin",
        "te"
      ],
      [
        "Ġc",
        "y"
      ],
      [
        "le",
        "t"
      ],
      [
        "Ġb",
        "as"
      ],
      [
        "Ġest",
        "ab"
      ],
      [
        "how",
        "ever"
      ],
      [
        "Ġt",
        "ro"
      ],
      [
        "ist",
        "ed"
      ],
      [
        "Ġfe",
        "bruary"
      ],
      [
        "Ġres",
        "ult"
      ],
      [
        "Ġto",
        "o"
      ],
      [
        "Ġf",
        "ire"
      ],
      [
        "Ġin",
        "it"
      ],
      [
        "Ġa",
        "ward"
      ],
      [
        "d",
        "ay"
      ],
      [
        "a",
        "e"
      ],
      [
        "Ġw",
        "ant"
      ],
      [
        "at",
        "or"
      ],
      [
        "Ġre",
        "d"
      ],
      [
        "Ġpl",
        "an"
      ],
      [
        "ou",
        "te"
      ],
      [
        "oc",
        "i"
      ],
      [
        "el",
        "s"
      ],
      [
        "w",
        "ith"
      ],
      [
        "en",
        "n"
      ],
      [
        "es",
        "e"
      ],
      [
        "Ġsu",
        "m"
      ],
      [
        "Ġsevent",
        "een"
      ],
      [
        "ul",
        "ation"
      ],
      [
        "Ġar",
        "g"
      ],
      [
        "ic",
        "es"
      ],
      [
        "the",
        "re"
      ],
      [
        "Ġbu",
        "ilt"
      ],
      [
        "Ġb",
        "ody"
      ],
      [
        "Ġper",
        "forman"
      ],
      [
        "res",
        "ent"
      ],
      [
        "Ġch",
        "ur"
      ],
      [
        "Ġcon",
        "cer"
      ],
      [
        "Ġserv",
        "ice"
      ],
      [
        "Ġlit",
        "tle"
      ],
      [
        "d",
        "uring"
      ],
      [
        "m",
        "it"
      ],
      [
        "Ġf",
        "ree"
      ],
      [
        "Ġmat",
        "ch"
      ],
      [
        "Ġbec",
        "ome"
      ],
      [
        "Ġch",
        "rist"
      ],
      [
        "Ġeuro",
        "pe"
      ],
      [
        "se",
        "qu"
      ],
      [
        "ide",
        "red"
      ],
      [
        "Ġunivers",
        "ity"
      ],
      [
        "Ġ",
        "ve"
      ],
      [
        "as",
        "ter"
      ],
      [
        "Ġro",
        "le"
      ],
      [
        "Ġre",
        "ad"
      ],
      [
        "Ġf",
        "act"
      ],
      [
        "Ġwh",
        "ite"
      ],
      [
        "Ġf",
        "oot"
      ],
      [
        "Ġconst",
        "ru"
      ],
      [
        "h",
        "am"
      ],
      [
        "Ġind",
        "e"
      ],
      [
        "is",
        "ter"
      ],
      [
        "wh",
        "ile"
      ],
      [
        "at",
        "ic"
      ],
      [
        "Ġf",
        "re"
      ],
      [
        "Ġcro",
        "ss"
      ],
      [
        "Ġan",
        "im"
      ],
      [
        "Ġcontinu",
        "ed"
      ],
      [
        "Ġy",
        "our"
      ],
      [
        "Ġre",
        "ason"
      ],
      [
        "Ġst",
        "ree"
      ],
      [
        "qu",
        "e"
      ],
      [
        "Ġm",
        "ot"
      ],
      [
        "f",
        "ord"
      ],
      [
        "Ġloc",
        "al"
      ],
      [
        "s",
        "ide"
      ],
      [
        "ot",
        "s"
      ],
      [
        "Ġt",
        "est"
      ],
      [
        "Ġf",
        "ather"
      ],
      [
        "pl",
        "ay"
      ],
      [
        "Ġf",
        "rench"
      ],
      [
        "Ġother",
        "s"
      ],
      [
        "Ġto",
        "t"
      ],
      [
        "ive",
        "ly"
      ],
      [
        "Ġw",
        "ent"
      ],
      [
        "Ġpro",
        "f"
      ],
      [
        "Ġc",
        "ir"
      ],
      [
        "Ġcl",
        "aim"
      ],
      [
        "Ġn",
        "ight"
      ],
      [
        "g",
        "y"
      ],
      [
        "Ġcons",
        "idered"
      ],
      [
        "Ġauth",
        "or"
      ],
      [
        "Ġg",
        "ave"
      ],
      [
        "Ġb",
        "ir"
      ],
      [
        "Ġm",
        "er"
      ],
      [
        "Ġj",
        "e"
      ],
      [
        "om",
        "et"
      ],
      [
        "y",
        "ing"
      ],
      [
        "in",
        "ess"
      ],
      [
        "al",
        "k"
      ],
      [
        "l",
        "ine"
      ],
      [
        "Ġr",
        "oute"
      ],
      [
        "Ġrele",
        "ase"
      ],
      [
        "ie",
        "ty"
      ],
      [
        "Ġpartic",
        "ular"
      ],
      [
        "Ġdo",
        "es"
      ],
      [
        "Ġass",
        "oci"
      ],
      [
        "Ġt",
        "re"
      ],
      [
        "o",
        "ve"
      ],
      [
        "Ġne",
        "ed"
      ],
      [
        "Ġb",
        "ased"
      ],
      [
        "Ġp",
        "ut"
      ],
      [
        "b",
        "s"
      ],
      [
        "Ġro",
        "ck"
      ],
      [
        "Ġw",
        "ord"
      ],
      [
        "Ġpres",
        "ident"
      ],
      [
        "rop",
        "ical"
      ],
      [
        "on",
        "es"
      ],
      [
        "Ġw",
        "at"
      ],
      [
        "Ġh",
        "ig"
      ],
      [
        "Ġmo",
        "ved"
      ],
      [
        "Ġhu",
        "man"
      ],
      [
        "c",
        "raft"
      ],
      [
        "p",
        "ite"
      ],
      [
        "Ġl",
        "ow"
      ],
      [
        "Ġr",
        "u"
      ],
      [
        "way",
        "s"
      ],
      [
        "Ġhal",
        "f"
      ],
      [
        "Ġcour",
        "t"
      ],
      [
        "al",
        "th"
      ],
      [
        "Ġp",
        "ress"
      ],
      [
        "op",
        "s"
      ],
      [
        "Ġstr",
        "ong"
      ],
      [
        "Ġa",
        "way"
      ],
      [
        "g",
        "en"
      ],
      [
        "ie",
        "f"
      ],
      [
        "an",
        "ces"
      ],
      [
        "g",
        "ress"
      ],
      [
        "es",
        "tern"
      ],
      [
        "Ġl",
        "im"
      ],
      [
        "iz",
        "e"
      ],
      [
        "Ġch",
        "ang"
      ],
      [
        "ge",
        "ther"
      ],
      [
        "Ġl",
        "ost"
      ],
      [
        "Ġpos",
        "ition"
      ],
      [
        "sel",
        "ves"
      ],
      [
        "iv",
        "al"
      ],
      [
        "Ġlo",
        "ve"
      ],
      [
        "Ġwee",
        "k"
      ],
      [
        "Ġcom",
        "b"
      ],
      [
        "gr",
        "am"
      ],
      [
        "Ġplay",
        "er"
      ],
      [
        "u",
        "es"
      ],
      [
        "Ġl",
        "at"
      ],
      [
        "Ġpar",
        "ty"
      ],
      [
        "c",
        "ut"
      ],
      [
        "Ġchild",
        "ren"
      ],
      [
        "f",
        "er"
      ],
      [
        "Ġyoun",
        "g"
      ],
      [
        "Ġh",
        "o"
      ],
      [
        "Ġhu",
        "r"
      ],
      [
        "is",
        "on"
      ],
      [
        "Ġde",
        "cl"
      ],
      [
        "Ġth",
        "ought"
      ],
      [
        "he",
        "re"
      ],
      [
        "Ġf",
        "ield"
      ],
      [
        "Ġimp",
        "ort"
      ],
      [
        "Ġh",
        "on"
      ],
      [
        "Ġinv",
        "ol"
      ],
      [
        "Ġgr",
        "ound"
      ],
      [
        "Ġchur",
        "ch"
      ],
      [
        "Ġfor",
        "ces"
      ],
      [
        "our",
        "s"
      ],
      [
        "ab",
        "ly"
      ],
      [
        "gg",
        "est"
      ],
      [
        "Ġf",
        "ac"
      ],
      [
        "ail",
        "ed"
      ],
      [
        "Ġn",
        "at"
      ],
      [
        "Ġe",
        "ither"
      ],
      [
        "Ġeng",
        "land"
      ],
      [
        "Ġinf",
        "lu"
      ],
      [
        "Ġpro",
        "te"
      ],
      [
        "Ġhist",
        "ory"
      ],
      [
        "Ġg",
        "et"
      ],
      [
        "Ġcon",
        "d"
      ],
      [
        "el",
        "t"
      ],
      [
        "Ġte",
        "ch"
      ],
      [
        "Ġship",
        "s"
      ],
      [
        "Ġrep",
        "resent"
      ],
      [
        "Ġcon",
        "v"
      ],
      [
        "um",
        "ent"
      ],
      [
        "Ġv",
        "ol"
      ],
      [
        "Ġl",
        "ab"
      ],
      [
        "Ġsu",
        "ggest"
      ],
      [
        "Ġa",
        "ge"
      ],
      [
        "Ġf",
        "all"
      ],
      [
        "Ġwill",
        "iam"
      ],
      [
        "Ġs",
        "it"
      ],
      [
        "Ġsong",
        "s"
      ],
      [
        "g",
        "o"
      ],
      [
        "Ġmilit",
        "ary"
      ],
      [
        "Ġcir",
        "c"
      ],
      [
        "f",
        "if"
      ],
      [
        "v",
        "ision"
      ],
      [
        "Ġro",
        "yal"
      ],
      [
        "s",
        "p"
      ],
      [
        "Ġhist",
        "or"
      ],
      [
        "Ġvers",
        "ion"
      ],
      [
        "Ġcoun",
        "ty"
      ],
      [
        "Ġn",
        "ature"
      ],
      [
        "im",
        "ent"
      ],
      [
        "Ġwrit",
        "ten"
      ],
      [
        "g",
        "es"
      ],
      [
        "rib",
        "ut"
      ],
      [
        "Ġfor",
        "t"
      ],
      [
        "pl",
        "oy"
      ],
      [
        "Ġf",
        "un"
      ],
      [
        "Ġprodu",
        "ction"
      ],
      [
        "Ġge",
        "or"
      ],
      [
        "Ġch",
        "art"
      ],
      [
        "Ġreturn",
        "ed"
      ],
      [
        "Ġlo",
        "ok"
      ],
      [
        "Ġtr",
        "ad"
      ],
      [
        "ond",
        "on"
      ],
      [
        "ri",
        "pt"
      ],
      [
        "Ġon",
        "ce"
      ],
      [
        "ra",
        "w"
      ],
      [
        "Ġpro",
        "gram"
      ],
      [
        "Ġl",
        "ive"
      ],
      [
        "Ġb",
        "ur"
      ],
      [
        "Ġbuild",
        "ing"
      ],
      [
        "Ġinte",
        "rest"
      ],
      [
        "Ġd",
        "ou"
      ],
      [
        "Ġann",
        "oun"
      ],
      [
        "Ġnine",
        "teen"
      ],
      [
        "al",
        "ity"
      ],
      [
        "Ġse",
        "a"
      ],
      [
        "Ġeng",
        "lish"
      ],
      [
        "Ġar",
        "ch"
      ],
      [
        "e",
        "ad"
      ],
      [
        "as",
        "es"
      ],
      [
        "Ġj",
        "ud"
      ],
      [
        "pe",
        "t"
      ],
      [
        "Ġg",
        "old"
      ],
      [
        "ro",
        "y"
      ],
      [
        "Ġp",
        "ra"
      ],
      [
        "Ġm",
        "aking"
      ],
      [
        "Ġtot",
        "al"
      ],
      [
        "Ġcontro",
        "l"
      ],
      [
        "or",
        "ies"
      ],
      [
        ",",
        "\""
      ],
      [
        "olog",
        "y"
      ],
      [
        "a",
        "ign"
      ],
      [
        "Ġcom",
        "e"
      ],
      [
        "Ġchamp",
        "ions"
      ],
      [
        "Ġs",
        "ty"
      ],
      [
        "Ġst",
        "ated"
      ],
      [
        "Ġm",
        "iss"
      ],
      [
        "er",
        "ing"
      ],
      [
        "Ġl",
        "ondon"
      ],
      [
        "l",
        "ike"
      ],
      [
        "re",
        "w"
      ],
      [
        "op",
        "h"
      ],
      [
        "Ġ",
        "ill"
      ],
      [
        "ac",
        "c"
      ],
      [
        "Ġst",
        "ation"
      ],
      [
        "ogr",
        "aph"
      ],
      [
        "al",
        "d"
      ],
      [
        "en",
        "ed"
      ],
      [
        "thir",
        "ty"
      ],
      [
        "Ġh",
        "y"
      ],
      [
        "Ġwom",
        "en"
      ],
      [
        "Ġstree",
        "t"
      ],
      [
        "Ġle",
        "vel"
      ],
      [
        "Ġt",
        "aken"
      ],
      [
        "x",
        "im"
      ],
      [
        "s",
        "hip"
      ],
      [
        "n",
        "ow"
      ],
      [
        "Ġh",
        "or"
      ],
      [
        "d",
        "om"
      ],
      [
        "Ġcl",
        "ose"
      ],
      [
        "Ġco",
        "ast"
      ],
      [
        "Ġreport",
        "ed"
      ],
      [
        "Ġe",
        "ver"
      ],
      [
        "Ġc",
        "ase"
      ],
      [
        "Ġde",
        "v"
      ],
      [
        "Ġr",
        "ail"
      ],
      [
        "Ġprodu",
        "ced"
      ],
      [
        "Ġear",
        "l"
      ],
      [
        "Ġacc",
        "ording"
      ],
      [
        "Ġar",
        "ri"
      ],
      [
        "f",
        "ic"
      ],
      [
        "Ġf",
        "av"
      ],
      [
        "Ġdire",
        "ct"
      ],
      [
        "Ġpro",
        "ject"
      ],
      [
        "ce",
        "ed"
      ],
      [
        "Ġto",
        "gether"
      ],
      [
        "Ġm",
        "ich"
      ],
      [
        "Ġintern",
        "ational"
      ],
      [
        "Ġab",
        "le"
      ],
      [
        "h",
        "is"
      ],
      [
        "m",
        "a"
      ],
      [
        "i",
        "ber"
      ],
      [
        "er",
        "y"
      ],
      [
        "Ġs",
        "al"
      ],
      [
        "Ġpop",
        "ular"
      ],
      [
        "Ġpubl",
        "ished"
      ],
      [
        "Ġf",
        "ight"
      ],
      [
        "Ġf",
        "ull"
      ],
      [
        "ge",
        "t"
      ],
      [
        "m",
        "on"
      ],
      [
        "Ġbe",
        "gin"
      ],
      [
        "Ġv",
        "o"
      ],
      [
        "Ġle",
        "t"
      ],
      [
        "the",
        "n"
      ],
      [
        "Ġre",
        "se"
      ],
      [
        "Ġdevelop",
        "ment"
      ],
      [
        "Ġcap",
        "t"
      ],
      [
        "ar",
        "ing"
      ],
      [
        "Ġl",
        "y"
      ],
      [
        "il",
        "le"
      ],
      [
        "st",
        "r"
      ],
      [
        "Ġ",
        "zero"
      ],
      [
        "Ġele",
        "ct"
      ],
      [
        "Ġinclud",
        "e"
      ],
      [
        "Ġhe",
        "n"
      ],
      [
        "o",
        "ff"
      ],
      [
        "al",
        "though"
      ],
      [
        "Ġdis",
        "co"
      ],
      [
        "it",
        "ive"
      ],
      [
        "Ġ",
        "ver"
      ],
      [
        "Ġh",
        "it"
      ],
      [
        "a",
        "i"
      ],
      [
        "Ġus",
        "ing"
      ],
      [
        "Ġse",
        "en"
      ],
      [
        "ri",
        "es"
      ],
      [
        "Ġfr",
        "ont"
      ],
      [
        "m",
        "en"
      ],
      [
        "Ġm",
        "ass"
      ],
      [
        "fe",
        "red"
      ],
      [
        "Ġcan",
        "ad"
      ],
      [
        "Ġob",
        "ser"
      ],
      [
        "Ġpro",
        "per"
      ],
      [
        "Ġm",
        "oun"
      ],
      [
        "Ġbro",
        "ad"
      ],
      [
        "Ġh",
        "old"
      ],
      [
        "Ġdep",
        "art"
      ],
      [
        "Ġd",
        "on"
      ],
      [
        "Ġy",
        "et"
      ],
      [
        "Ġb",
        "ase"
      ],
      [
        "Ġt",
        "ropical"
      ],
      [
        "Ġw",
        "all"
      ],
      [
        "Ġsu",
        "n"
      ],
      [
        "Ġpr",
        "im"
      ],
      [
        "Ġp",
        "ain"
      ],
      [
        "ve",
        "red"
      ],
      [
        "Ġas",
        "k"
      ],
      [
        "Ġspec",
        "ial"
      ],
      [
        "Ġd",
        "en"
      ],
      [
        "Ġhigh",
        "way"
      ],
      [
        "r",
        "ay"
      ],
      [
        "Ġr",
        "ather"
      ],
      [
        "Ġit",
        "self"
      ],
      [
        "re",
        "am"
      ],
      [
        "os",
        "p"
      ],
      [
        "am",
        "a"
      ],
      [
        "Ġh",
        "ard"
      ],
      [
        "y",
        "l"
      ],
      [
        "Ġthem",
        "selves"
      ],
      [
        "Ġw",
        "estern"
      ],
      [
        "Ġperforman",
        "ce"
      ],
      [
        "Ġth",
        "ink"
      ],
      [
        "Ġrecord",
        "ed"
      ],
      [
        "Ġc",
        "op"
      ],
      [
        "Ġcrit",
        "ic"
      ],
      [
        "Ġtele",
        "vision"
      ],
      [
        "e",
        "x"
      ],
      [
        "Ġwh",
        "om"
      ],
      [
        "Ġcamp",
        "aign"
      ],
      [
        "ing",
        "ton"
      ],
      [
        "n",
        "o"
      ],
      [
        "Ġcomm",
        "it"
      ],
      [
        "ens",
        "ive"
      ],
      [
        "Ġcare",
        "er"
      ],
      [
        "Ġh",
        "om"
      ],
      [
        "feren",
        "ce"
      ],
      [
        "se",
        "v"
      ],
      [
        "Ġv",
        "ill"
      ],
      [
        "Ġocc",
        "ur"
      ],
      [
        "Ġc",
        "oll"
      ],
      [
        "Ġint",
        "rodu"
      ],
      [
        "se",
        "t"
      ],
      [
        "Ġd",
        "ied"
      ],
      [
        "Ġrem",
        "ained"
      ],
      [
        "Ġd",
        "av"
      ],
      [
        "Ġs",
        "at"
      ],
      [
        "Ġm",
        "ind"
      ],
      [
        "Ġs",
        "aw"
      ],
      [
        "Ġrel",
        "ations"
      ],
      [
        "Ġc",
        "at"
      ],
      [
        "Ġcon",
        "ne"
      ],
      [
        "Ġtit",
        "le"
      ],
      [
        "Ġf",
        "ell"
      ],
      [
        "m",
        "y"
      ],
      [
        "Ġa",
        "ud"
      ],
      [
        "Ġcent",
        "ral"
      ],
      [
        "Ġme",
        "an"
      ],
      [
        "Ġdest",
        "roy"
      ],
      [
        "pe",
        "c"
      ],
      [
        "Ġvar",
        "ious"
      ],
      [
        "is",
        "ing"
      ],
      [
        "Ġme",
        "et"
      ],
      [
        "Ġl",
        "ist"
      ],
      [
        "tain",
        "ed"
      ],
      [
        "Ġth",
        "us"
      ],
      [
        "n",
        "am"
      ],
      [
        "Ġp",
        "le"
      ],
      [
        "a",
        "pe"
      ],
      [
        "Ġmonth",
        "s"
      ],
      [
        "c",
        "il"
      ],
      [
        "Ġcharac",
        "ters"
      ],
      [
        "Ġhel",
        "p"
      ],
      [
        "Ġexp",
        "ress"
      ],
      [
        "d",
        "en"
      ],
      [
        "Ġf",
        "t"
      ],
      [
        "Ġsqu",
        "ad"
      ],
      [
        "em",
        "y"
      ],
      [
        "Ġhu",
        "n"
      ],
      [
        "Ġw",
        "ood"
      ],
      [
        "st",
        "and"
      ],
      [
        "Ġs",
        "il"
      ],
      [
        "Ġbro",
        "ther"
      ],
      [
        "Ġh",
        "app"
      ],
      [
        "l",
        "s"
      ],
      [
        "i",
        "ers"
      ],
      [
        "Ġoffic",
        "ial"
      ],
      [
        "Ġa",
        "ction"
      ],
      [
        "id",
        "ence"
      ],
      [
        "Ġac",
        "ross"
      ],
      [
        "Ġbec",
        "om"
      ],
      [
        "er",
        "c"
      ],
      [
        "er",
        "al"
      ],
      [
        "Ġf",
        "elt"
      ],
      [
        "Ġc",
        "ost"
      ],
      [
        "ac",
        "y"
      ],
      [
        "iv",
        "id"
      ],
      [
        "av",
        "es"
      ],
      [
        "Ġre",
        "ached"
      ],
      [
        "ort",
        "s"
      ],
      [
        "ap",
        "s"
      ],
      [
        "Ġ",
        ")"
      ],
      [
        "Ġqu",
        "est"
      ],
      [
        "Ġoff",
        "ice"
      ],
      [
        "Ġe",
        "ff"
      ],
      [
        "Ġsign",
        "ific"
      ],
      [
        "Ġsh",
        "all"
      ],
      [
        "Ġex",
        "ist"
      ],
      [
        "Ġpolit",
        "ical"
      ],
      [
        "m",
        "ar"
      ],
      [
        "Ġsou",
        "thern"
      ],
      [
        "Ġj",
        "ack"
      ],
      [
        "z",
        "e"
      ],
      [
        "Ġres",
        "pect"
      ],
      [
        "Ġbr",
        "ought"
      ],
      [
        "Ġfollow",
        "ed"
      ],
      [
        "Ġes",
        "c"
      ],
      [
        "o",
        "ver"
      ],
      [
        "Ġcent",
        "er"
      ],
      [
        "Ġm",
        "ight"
      ],
      [
        "Ġair",
        "craft"
      ],
      [
        "Ġc",
        "iv"
      ],
      [
        "Ġr",
        "ich"
      ],
      [
        "Ġwor",
        "ks"
      ],
      [
        "Ġtr",
        "ave"
      ],
      [
        "ac",
        "es"
      ],
      [
        "te",
        "red"
      ],
      [
        "Ġb",
        "om"
      ],
      [
        "Ġb",
        "all"
      ],
      [
        "Ġc",
        "ut"
      ],
      [
        "Ġc",
        "ult"
      ],
      [
        "Ġaustral",
        "ia"
      ],
      [
        "Ġr",
        "ace"
      ],
      [
        "Ġpro",
        "cess"
      ],
      [
        "er",
        "t"
      ],
      [
        "it",
        "ing"
      ],
      [
        "Ġdif",
        "fic"
      ],
      [
        "Ġdevelop",
        "ed"
      ],
      [
        "Ġpoin",
        "ts"
      ],
      [
        "Ġg",
        "ive"
      ],
      [
        "Ġh",
        "ill"
      ],
      [
        "Ġcre",
        "ated"
      ],
      [
        "Ġpr",
        "act"
      ],
      [
        "Ġplay",
        "ers"
      ],
      [
        "Ġtech",
        "n"
      ],
      [
        "Ġn",
        "on"
      ],
      [
        "Ġchampions",
        "hip"
      ],
      [
        "Ġear",
        "th"
      ],
      [
        "l",
        "ished"
      ],
      [
        "Ġf",
        "em"
      ],
      [
        "Ġnot",
        "ed"
      ],
      [
        "Ġkill",
        "ed"
      ],
      [
        "Ġsub",
        "ject"
      ],
      [
        "one",
        "y"
      ],
      [
        "Ġt",
        "ur"
      ],
      [
        "Ġhur",
        "ric"
      ],
      [
        "Ġmil",
        "es"
      ],
      [
        "d",
        "s"
      ],
      [
        "Ġm",
        "ad"
      ],
      [
        "m",
        "p"
      ],
      [
        "Ġb",
        "ow"
      ],
      [
        "Ġse",
        "em"
      ],
      [
        "Ġst",
        "ri"
      ],
      [
        "Ġthrough",
        "out"
      ],
      [
        "Ġinst",
        "ead"
      ],
      [
        "m",
        "ing"
      ],
      [
        "amp",
        "le"
      ],
      [
        "Ġannoun",
        "ced"
      ],
      [
        "Ġposs",
        "ible"
      ],
      [
        "med",
        "i"
      ],
      [
        "Ġse",
        "l"
      ],
      [
        "Ġcomple",
        "te"
      ],
      [
        "er",
        "v"
      ],
      [
        "Ġare",
        "as"
      ],
      [
        "ric",
        "t"
      ],
      [
        "b",
        "ur"
      ],
      [
        "Ġc",
        "am"
      ],
      [
        "Ġgr",
        "and"
      ],
      [
        "Ġob",
        "ject"
      ],
      [
        "b",
        "or"
      ],
      [
        "Ġh",
        "all"
      ],
      [
        "Ġr",
        "ound"
      ],
      [
        "Ġsuccess",
        "ful"
      ],
      [
        "ct",
        "ure"
      ],
      [
        "Ġprom",
        "ot"
      ],
      [
        "Ġb",
        "at"
      ],
      [
        "Ġst",
        "at"
      ],
      [
        "Ġbe",
        "tter"
      ],
      [
        "og",
        "n"
      ],
      [
        "Ġind",
        "ust"
      ],
      [
        "Ġent",
        "ire"
      ],
      [
        "a",
        "el"
      ],
      [
        "g",
        "est"
      ],
      [
        "he",
        "ad"
      ],
      [
        "c",
        "ast"
      ],
      [
        "Ġp",
        "al"
      ],
      [
        "Ġperform",
        "ed"
      ],
      [
        "le",
        "ct"
      ],
      [
        "w",
        "est"
      ],
      [
        "Ġg",
        "row"
      ],
      [
        "v",
        "al"
      ],
      [
        "in",
        "ation"
      ],
      [
        "Ġso",
        "on"
      ],
      [
        "Ġh",
        "ot"
      ],
      [
        "f",
        "ield"
      ],
      [
        "Ġser",
        "ved"
      ],
      [
        "Ġc",
        "ertain"
      ],
      [
        "Ġis",
        "su"
      ],
      [
        "ol",
        "ution"
      ],
      [
        "Ġcons",
        "ider"
      ],
      [
        "Ġin",
        "j"
      ],
      [
        "Ġhe",
        "avy"
      ],
      [
        "at",
        "ors"
      ],
      [
        "for",
        "ty"
      ],
      [
        "Ġmo",
        "ther"
      ],
      [
        "Ġen",
        "c"
      ],
      [
        "Ġa",
        "ver"
      ],
      [
        "Ġbus",
        "iness"
      ],
      [
        "Ġp",
        "en"
      ],
      [
        "Ġto",
        "wards"
      ],
      [
        "Ġp",
        "it"
      ],
      [
        "Ġs",
        "an"
      ],
      [
        "r",
        "ation"
      ],
      [
        "e",
        "igh"
      ],
      [
        "Ġthere",
        "fore"
      ],
      [
        "Ġbr",
        "idge"
      ],
      [
        "Ġs",
        "a"
      ],
      [
        "ut",
        "es"
      ],
      [
        "Ġappe",
        "ared"
      ],
      [
        "Ġne",
        "g"
      ],
      [
        "Ġ",
        "ident"
      ],
      [
        "Ġfe",
        "et"
      ],
      [
        "ud",
        "e"
      ],
      [
        "us",
        "h"
      ],
      [
        "Ġimp",
        "ro"
      ],
      [
        "Ġle",
        "ast"
      ],
      [
        "Ġm",
        "ix"
      ],
      [
        "Ġde",
        "t"
      ],
      [
        "Ġt",
        "reat"
      ],
      [
        "Ġwrit",
        "ing"
      ],
      [
        "d",
        "le"
      ],
      [
        "in",
        "t"
      ],
      [
        "Ġind",
        "ivid"
      ],
      [
        "Ġameric",
        "a"
      ],
      [
        "Ġe",
        "y"
      ],
      [
        "p",
        "r"
      ],
      [
        "u",
        "ck"
      ],
      [
        "Ġnor",
        "thern"
      ],
      [
        "Ġcolle",
        "ge"
      ],
      [
        "Ġmod",
        "ern"
      ],
      [
        "Ġdis",
        "p"
      ],
      [
        "re",
        "g"
      ],
      [
        "Ġp",
        "red"
      ],
      [
        "an",
        "a"
      ],
      [
        "Ġre",
        "du"
      ],
      [
        "oc",
        "r"
      ],
      [
        "Ġestab",
        "lished"
      ],
      [
        "ree",
        "k"
      ],
      [
        "av",
        "al"
      ],
      [
        "Ġp",
        "ot"
      ],
      [
        "d",
        "es"
      ],
      [
        "acc",
        "ording"
      ],
      [
        "n",
        "es"
      ],
      [
        "Ġm",
        "m"
      ],
      [
        "os",
        "ition"
      ],
      [
        "Ġv",
        "i"
      ],
      [
        "Ġt",
        "ell"
      ],
      [
        "Ġin",
        "form"
      ],
      [
        "Ġca",
        "used"
      ],
      [
        "Ġadd",
        "ed"
      ],
      [
        "Ġk",
        "ind"
      ],
      [
        "Ġth",
        "ing"
      ],
      [
        "Ġmem",
        "ber"
      ],
      [
        "Ġm",
        "i"
      ],
      [
        "Ġne",
        "cess"
      ],
      [
        "Ġde",
        "but"
      ],
      [
        "Ġinv",
        "est"
      ],
      [
        "Ġde",
        "ter"
      ],
      [
        "inc",
        "ip"
      ],
      [
        "o",
        "x"
      ],
      [
        "Ġd",
        "i"
      ],
      [
        "Ġwhe",
        "ther"
      ],
      [
        "Ġt",
        "or"
      ],
      [
        "Ġsep",
        "ar"
      ],
      [
        "Ġh",
        "am"
      ],
      [
        "Ġpri",
        "v"
      ],
      [
        "Ġbeh",
        "ind"
      ],
      [
        "ad",
        "es"
      ],
      [
        "th",
        "at"
      ],
      [
        "Ġf",
        "ig"
      ],
      [
        "Ġprof",
        "ess"
      ],
      [
        "Ġaf",
        "f"
      ],
      [
        "fif",
        "ty"
      ],
      [
        "iz",
        "ation"
      ],
      [
        "Ġm",
        "ur"
      ],
      [
        "Ġform",
        "ed"
      ],
      [
        "Ġsignific",
        "ant"
      ],
      [
        "Ġj",
        "ames"
      ],
      [
        "Ġevent",
        "ually"
      ],
      [
        "Ġciv",
        "il"
      ],
      [
        "Ġf",
        "a"
      ],
      [
        "ubl",
        "ic"
      ],
      [
        "Ġm",
        "ater"
      ],
      [
        "Ġfle",
        "et"
      ],
      [
        "Ġact",
        "iv"
      ],
      [
        "Ġl",
        "os"
      ],
      [
        "Ġimport",
        "ant"
      ],
      [
        "ign",
        "ed"
      ],
      [
        "Ġdec",
        "ided"
      ],
      [
        "ne",
        "w"
      ],
      [
        "Ġre",
        "ve"
      ],
      [
        "Ġle",
        "ar"
      ],
      [
        "Ġking",
        "dom"
      ],
      [
        "Ġhurric",
        "ane"
      ],
      [
        "Ġeng",
        "ine"
      ],
      [
        "Ġr",
        "ul"
      ],
      [
        "Ġr",
        "ange"
      ],
      [
        "Ġem",
        "p"
      ],
      [
        "ang",
        "u"
      ],
      [
        "Ġco",
        "ver"
      ],
      [
        "Ġex",
        "e"
      ],
      [
        "Ġa",
        "ch"
      ],
      [
        "Ġacc",
        "om"
      ],
      [
        "al",
        "y"
      ],
      [
        "Ġjapan",
        "ese"
      ],
      [
        "Ġwho",
        "le"
      ],
      [
        "Ġfour",
        "th"
      ],
      [
        "Ġsay",
        "ing"
      ],
      [
        "od",
        "es"
      ],
      [
        "Ġm",
        "ult"
      ],
      [
        "Ġstart",
        "ed"
      ],
      [
        "Ġfoot",
        "ball"
      ],
      [
        "Ġm",
        "al"
      ],
      [
        "c",
        "ing"
      ],
      [
        "the",
        "se"
      ],
      [
        "Ġreg",
        "ard"
      ],
      [
        "Ġsu",
        "ff"
      ],
      [
        "Ġaf",
        "ric"
      ],
      [
        "Ġsur",
        "v"
      ],
      [
        "Ġs",
        "us"
      ],
      [
        "v",
        "iew"
      ],
      [
        "w",
        "ood"
      ],
      [
        "Ġpl",
        "at"
      ],
      [
        "p",
        "re"
      ],
      [
        "Ġex",
        "ample"
      ],
      [
        "Ġu",
        "r"
      ],
      [
        "Ġfeat",
        "ures"
      ],
      [
        "Ġg",
        "ar"
      ],
      [
        "Ġpre",
        "m"
      ],
      [
        "Ġh",
        "ost"
      ],
      [
        "Ġch",
        "o"
      ],
      [
        "con",
        "om"
      ],
      [
        "Ġcre",
        "w"
      ],
      [
        "Ġpart",
        "s"
      ],
      [
        "Ġpr",
        "incip"
      ],
      [
        "Ġinde",
        "pend"
      ],
      [
        "Ġal",
        "most"
      ],
      [
        "Ġcomm",
        "ission"
      ],
      [
        "Ġb",
        "ig"
      ],
      [
        "as",
        "ion"
      ],
      [
        "Ġal",
        "ways"
      ],
      [
        "Ġc",
        "reat"
      ],
      [
        "Ġapp",
        "oin"
      ],
      [
        "f",
        "l"
      ],
      [
        "Ġst",
        "age"
      ],
      [
        "a",
        "ur"
      ],
      [
        "Ġg",
        "ir"
      ],
      [
        "Ġw",
        "ide"
      ],
      [
        "Ġem",
        "ploy"
      ],
      [
        "g",
        "ar"
      ],
      [
        "Ġaustral",
        "ian"
      ],
      [
        "Ġwho",
        "se"
      ],
      [
        "Ġmag",
        "az"
      ],
      [
        "Ġac",
        "cept"
      ],
      [
        "Ġke",
        "ep"
      ],
      [
        "Ġl",
        "oss"
      ],
      [
        "Ġno",
        "vel"
      ],
      [
        "Ġh",
        "ol"
      ],
      [
        "en",
        "se"
      ],
      [
        "Ġloc",
        "ated"
      ],
      [
        "Ġw",
        "ife"
      ],
      [
        "Ġcomple",
        "ted"
      ],
      [
        "ow",
        "s"
      ],
      [
        "Ġreg",
        "ion"
      ],
      [
        "Ġs",
        "ite"
      ],
      [
        "Ġcon",
        "du"
      ],
      [
        "Ġpro",
        "ble"
      ],
      [
        "he",
        "st"
      ],
      [
        "as",
        "ing"
      ],
      [
        "Ġsp",
        "ace"
      ],
      [
        "Ġsty",
        "le"
      ],
      [
        "as",
        "k"
      ],
      [
        "Ġre",
        "b"
      ],
      [
        "Ġab",
        "s"
      ],
      [
        "Ġed",
        "uc"
      ],
      [
        "read",
        "y"
      ],
      [
        "Ġcom",
        "ment"
      ],
      [
        "Ġfe",
        "el"
      ],
      [
        "Ġdire",
        "ctor"
      ],
      [
        "Ġide",
        "a"
      ],
      [
        "Ġch",
        "ange"
      ],
      [
        "Ġno",
        "thing"
      ],
      [
        "nine",
        "ty"
      ],
      [
        "Ġr",
        "ank"
      ],
      [
        "s",
        "ome"
      ],
      [
        "Ġallow",
        "ed"
      ],
      [
        "eng",
        "th"
      ],
      [
        "Ġab",
        "ove"
      ],
      [
        "Ġpop",
        "ulation"
      ],
      [
        "Ġconstru",
        "ction"
      ],
      [
        "u",
        "g"
      ],
      [
        "Ġn",
        "ar"
      ],
      [
        "Ġgeor",
        "ge"
      ],
      [
        "w",
        "er"
      ],
      [
        "y",
        "ear"
      ],
      [
        "Ġsub",
        "sequ"
      ],
      [
        "ris",
        "on"
      ],
      [
        "Ġ",
        "x"
      ],
      [
        "Ġqu",
        "ar"
      ],
      [
        "sev",
        "enty"
      ],
      [
        "Ġvict",
        "ory"
      ],
      [
        "Ġd",
        "one"
      ],
      [
        "Ġqu",
        "ick"
      ],
      [
        "Ġsec",
        "ret"
      ],
      [
        "Ġv",
        "ot"
      ],
      [
        "Ġen",
        "ough"
      ],
      [
        "-",
        "-"
      ],
      [
        "Ġtro",
        "ops"
      ],
      [
        "ar",
        "a"
      ],
      [
        "Ġch",
        "ief"
      ],
      [
        "Ġpe",
        "ak"
      ],
      [
        "en",
        "es"
      ],
      [
        "Ġopen",
        "ed"
      ],
      [
        "ag",
        "er"
      ],
      [
        "c",
        "her"
      ],
      [
        "Ġph",
        "ys"
      ],
      [
        "Ġr",
        "h"
      ],
      [
        "Ġf",
        "ed"
      ],
      [
        "c",
        "le"
      ],
      [
        "Ġpre",
        "p"
      ],
      [
        "Ġj",
        "our"
      ],
      [
        "as",
        "ure"
      ],
      [
        "Ġcoun",
        "cil"
      ],
      [
        "Ġa",
        "ut"
      ],
      [
        "ic",
        "ated"
      ],
      [
        "Ġorigin",
        "ally"
      ],
      [
        "Ġprov",
        "ided"
      ],
      [
        "Ġe",
        "conom"
      ],
      [
        "Ġmater",
        "ial"
      ],
      [
        "b",
        "l"
      ],
      [
        "Ġf",
        "ut"
      ],
      [
        "Ġdam",
        "age"
      ],
      [
        "Ġre",
        "ach"
      ],
      [
        "Ġro",
        "om"
      ],
      [
        "Ġcrit",
        "ics"
      ],
      [
        "Ġcle",
        "ar"
      ],
      [
        "Ġc",
        "up"
      ],
      [
        "Ġpl",
        "aced"
      ],
      [
        "Ġl",
        "ack"
      ],
      [
        "Ġgun",
        "s"
      ],
      [
        "Ġc",
        "ause"
      ],
      [
        "ou",
        "th"
      ],
      [
        "Ġsoc",
        "ial"
      ],
      [
        "Ġin",
        "n"
      ],
      [
        "Ġgener",
        "ally"
      ],
      [
        "Ġwork",
        "ed"
      ],
      [
        "er",
        "ous"
      ],
      [
        "Ġcan",
        "not"
      ],
      [
        "Ġwee",
        "ks"
      ],
      [
        "um",
        "b"
      ],
      [
        "ress",
        "ion"
      ],
      [
        "Ġlead",
        "ing"
      ],
      [
        "an",
        "ch"
      ],
      [
        "Ġf",
        "und"
      ],
      [
        "ric",
        "k"
      ],
      [
        "Ġd",
        "ri"
      ],
      [
        "pt",
        "ion"
      ],
      [
        "Ġc",
        "ru"
      ],
      [
        "Ġs",
        "our"
      ],
      [
        "Ġeas",
        "tern"
      ],
      [
        "Ġbro",
        "wn"
      ],
      [
        "Ġrep",
        "ublic"
      ],
      [
        "id",
        "ing"
      ],
      [
        "it",
        "ar"
      ],
      [
        "Ġtr",
        "u"
      ],
      [
        "Ġwant",
        "ed"
      ],
      [
        "Ġv",
        "oc"
      ],
      [
        "Ġsc",
        "ene"
      ],
      [
        "Ġnat",
        "ural"
      ],
      [
        "b",
        "ack"
      ],
      [
        "Ġal",
        "ready"
      ],
      [
        "six",
        "ty"
      ],
      [
        "Ġs",
        "am"
      ],
      [
        "Ġwork",
        "ing"
      ],
      [
        "ar",
        "ily"
      ],
      [
        "he",
        "l"
      ],
      [
        "Ġd",
        "er"
      ],
      [
        "Ġrelations",
        "hip"
      ],
      [
        "Ġp",
        "ast"
      ],
      [
        "Ġres",
        "ul"
      ],
      [
        "ent",
        "ial"
      ],
      [
        "in",
        "o"
      ],
      [
        "de",
        "red"
      ],
      [
        "at",
        "a"
      ],
      [
        "Ġrec",
        "ogn"
      ],
      [
        "Ġp",
        "ay"
      ],
      [
        "bo",
        "ard"
      ],
      [
        "Ġmid",
        "dle"
      ],
      [
        "Ġbre",
        "ak"
      ],
      [
        "n",
        "s"
      ],
      [
        "Ġth",
        "om"
      ],
      [
        "Ġwas",
        "h"
      ],
      [
        "ren",
        "g"
      ],
      [
        "Ġrel",
        "ig"
      ],
      [
        "Ġar",
        "r"
      ],
      [
        "f",
        "rom"
      ],
      [
        "Ġm",
        "el"
      ],
      [
        "Ġfr",
        "ance"
      ],
      [
        "ict",
        "ion"
      ],
      [
        "us",
        "ion"
      ],
      [
        "nd",
        "ed"
      ],
      [
        "Ġim",
        "medi"
      ],
      [
        "Ġjoin",
        "ed"
      ],
      [
        "if",
        "f"
      ],
      [
        "Ġind",
        "ian"
      ],
      [
        "Ġun",
        "ion"
      ],
      [
        "Ġev",
        "ents"
      ],
      [
        "Ġgo",
        "al"
      ],
      [
        "Ġsoc",
        "iety"
      ],
      [
        "Ġtr",
        "ue"
      ],
      [
        "Ġtrad",
        "ition"
      ],
      [
        "omet",
        "imes"
      ],
      [
        "f",
        "all"
      ],
      [
        "Ġplay",
        "ing"
      ],
      [
        "ic",
        "a"
      ],
      [
        "Ġb",
        "ay"
      ],
      [
        "pe",
        "cted"
      ],
      [
        "Ġla",
        "un"
      ],
      [
        "ish",
        "ing"
      ],
      [
        "Ġsome",
        "thing"
      ],
      [
        "an",
        "ks"
      ],
      [
        "Ġd",
        "ark"
      ],
      [
        "Ġrun",
        "s"
      ],
      [
        "Ġpass",
        "ed"
      ],
      [
        "l",
        "in"
      ],
      [
        "Ġm",
        "c"
      ],
      [
        "Ġest",
        "im"
      ],
      [
        "ct",
        "s"
      ],
      [
        "Ġtr",
        "aining"
      ],
      [
        "Ġgre",
        "en"
      ],
      [
        "Ġt",
        "ou"
      ],
      [
        "Ġa",
        "le"
      ],
      [
        "Ġhe",
        "art"
      ],
      [
        "Ġav",
        "ail"
      ],
      [
        "ers",
        "on"
      ],
      [
        "act",
        "ion"
      ],
      [
        "Ġsc",
        "ored"
      ],
      [
        "im",
        "in"
      ],
      [
        "Ġb",
        "ad"
      ],
      [
        "Ġty",
        "p"
      ],
      [
        "re",
        "en"
      ],
      [
        "al",
        "ed"
      ],
      [
        "Ġrad",
        "io"
      ],
      [
        "ad",
        "ed"
      ],
      [
        "Ġde",
        "al"
      ],
      [
        "ist",
        "ic"
      ],
      [
        "w",
        "ell"
      ],
      [
        "us",
        "es"
      ],
      [
        "Ġd",
        "ro"
      ],
      [
        "Ġfeat",
        "ured"
      ],
      [
        "Ġm",
        "oney"
      ],
      [
        "i",
        "os"
      ],
      [
        "ant",
        "ic"
      ],
      [
        "Ġse",
        "x"
      ],
      [
        "Ġto",
        "ld"
      ],
      [
        "Ġt",
        "aking"
      ],
      [
        "Ġbelie",
        "ved"
      ],
      [
        "Ġreg",
        "ular"
      ],
      [
        "h",
        "a"
      ],
      [
        "Ġcom",
        "pet"
      ],
      [
        "Ġp",
        "ie"
      ],
      [
        "Ġn",
        "avy"
      ],
      [
        "ll",
        "ing"
      ],
      [
        "Ġrom",
        "an"
      ],
      [
        "id",
        "s"
      ],
      [
        "Ġad",
        "m"
      ],
      [
        "Ġsum",
        "mer"
      ],
      [
        "t",
        "im"
      ],
      [
        "Ġr",
        "ain"
      ],
      [
        "Ġcur",
        "rent"
      ],
      [
        "Ġb",
        "al"
      ],
      [
        "Ġbr",
        "ig"
      ],
      [
        "Ġr",
        "ap"
      ],
      [
        "k",
        "y"
      ],
      [
        "Ġrecord",
        "s"
      ],
      [
        "Ġaver",
        "age"
      ],
      [
        "Ġbo",
        "ard"
      ],
      [
        "Ġdav",
        "id"
      ],
      [
        "Ġmagaz",
        "ine"
      ],
      [
        "Ġword",
        "s"
      ],
      [
        "f",
        "ace"
      ],
      [
        "Ġhe",
        "re"
      ],
      [
        "Ġf",
        "oc"
      ],
      [
        "Ġse",
        "le"
      ],
      [
        "ap",
        "er"
      ],
      [
        "Ġdes",
        "pite"
      ],
      [
        "Ġsel",
        "f"
      ],
      [
        "augh",
        "ter"
      ],
      [
        "Ġre",
        "n"
      ],
      [
        "Ġl",
        "angu"
      ],
      [
        "Ġth",
        "reat"
      ],
      [
        "Ġb",
        "er"
      ],
      [
        "Ġh",
        "ours"
      ],
      [
        "Ġgo",
        "ing"
      ],
      [
        "ific",
        "ation"
      ],
      [
        "Ġpro",
        "t"
      ],
      [
        "ll",
        "ed"
      ],
      [
        "Ġstud",
        "io"
      ],
      [
        "or",
        "ing"
      ],
      [
        "s",
        "ue"
      ],
      [
        "Ġfriend",
        "s"
      ],
      [
        "j",
        "o"
      ],
      [
        "Ġt",
        "ar"
      ],
      [
        "Ġst",
        "one"
      ],
      [
        "Ġinf",
        "ant"
      ],
      [
        "Ġturn",
        "ed"
      ],
      [
        "Ġass",
        "ist"
      ],
      [
        "Ġn",
        "omin"
      ],
      [
        "re",
        "ed"
      ],
      [
        "ic",
        "o"
      ],
      [
        "Ġang",
        "el"
      ],
      [
        "t",
        "ime"
      ],
      [
        "Ġpartic",
        "ip"
      ],
      [
        "Ġfor",
        "ced"
      ],
      [
        "p",
        "ro"
      ],
      [
        "en",
        "ces"
      ],
      [
        "Ġu",
        "l"
      ],
      [
        "en",
        "cy"
      ],
      [
        "Ġcol",
        "on"
      ],
      [
        "Ġa",
        "wards"
      ],
      [
        "Ġvi",
        "ol"
      ],
      [
        "Ġwind",
        "s"
      ],
      [
        "Ġr",
        "uss"
      ],
      [
        "Ġdiffic",
        "ult"
      ],
      [
        "Ġl",
        "ou"
      ],
      [
        "Ġsquad",
        "ron"
      ],
      [
        "ag",
        "o"
      ],
      [
        "Ġfut",
        "ure"
      ],
      [
        "Ġinvol",
        "ved"
      ],
      [
        "h",
        "ib"
      ],
      [
        "u",
        "el"
      ],
      [
        "Ġfl",
        "ight"
      ],
      [
        "eigh",
        "ty"
      ],
      [
        "Ġsp",
        "ir"
      ],
      [
        "Ġc",
        "it"
      ],
      [
        "Ġbegin",
        "ning"
      ],
      [
        "Ġbatt",
        "al"
      ],
      [
        "r",
        "ound"
      ],
      [
        "Ġqu",
        "een"
      ],
      [
        "Ġcap",
        "tain"
      ],
      [
        "Ġl",
        "ength"
      ],
      [
        "Ġst",
        "op"
      ],
      [
        "Ġb",
        "orn"
      ],
      [
        "Ġde",
        "ad"
      ],
      [
        "Ġask",
        "ed"
      ],
      [
        "Ġdesign",
        "ed"
      ],
      [
        "olog",
        "ical"
      ],
      [
        "Ġhig",
        "hest"
      ],
      [
        "m",
        "at"
      ],
      [
        "Ġfin",
        "ished"
      ],
      [
        "Ġconst",
        "it"
      ],
      [
        "t",
        "a"
      ],
      [
        "Ġrepl",
        "aced"
      ],
      [
        "Ġgre",
        "ater"
      ],
      [
        "i",
        "que"
      ],
      [
        "ip",
        "p"
      ],
      [
        "Ġrecord",
        "ing"
      ],
      [
        "is",
        "l"
      ],
      [
        "Ġst",
        "reng"
      ],
      [
        "Ġcy",
        "cl"
      ],
      [
        "Ġinit",
        "ially"
      ],
      [
        "Ġst",
        "aff"
      ],
      [
        "te",
        "e"
      ],
      [
        "Ġele",
        "ments"
      ],
      [
        "Ġp",
        "an"
      ],
      [
        "Ġsh",
        "ot"
      ],
      [
        "Ġapp",
        "l"
      ],
      [
        "Ġins",
        "p"
      ],
      [
        "Ġf",
        "ly"
      ],
      [
        "Ġde",
        "b"
      ],
      [
        "air",
        "s"
      ],
      [
        "Ġmoun",
        "tain"
      ],
      [
        "led",
        "ge"
      ],
      [
        "Ġappear",
        "ance"
      ],
      [
        "Ġex",
        "cept"
      ],
      [
        "w",
        "or"
      ],
      [
        "Ġme",
        "ans"
      ],
      [
        "Ġopen",
        "ing"
      ],
      [
        "Ġspe",
        "ed"
      ],
      [
        "ib",
        "ility"
      ],
      [
        "Ġgr",
        "ad"
      ],
      [
        "ate",
        "g"
      ],
      [
        "Ġhen",
        "ry"
      ],
      [
        "Ġw",
        "r"
      ],
      [
        "Ġsub",
        "st"
      ],
      [
        "Ġl",
        "ower"
      ],
      [
        "Ġgr",
        "ant"
      ],
      [
        "Ġad",
        "min"
      ],
      [
        "Ġbe",
        "g"
      ],
      [
        "ke",
        "y"
      ],
      [
        "cut",
        "ive"
      ],
      [
        "Ġro",
        "b"
      ],
      [
        "Ġm",
        "ph"
      ],
      [
        "Ġexper",
        "ience"
      ],
      [
        "Ġac",
        "qu"
      ],
      [
        "Ġwash",
        "ington"
      ],
      [
        "u",
        "ed"
      ],
      [
        "s",
        "y"
      ],
      [
        "Ġd",
        "an"
      ],
      [
        "Ġl",
        "ay"
      ],
      [
        "Ġmin",
        "utes"
      ],
      [
        "Ġl",
        "u"
      ],
      [
        "Ġearl",
        "ier"
      ],
      [
        "ul",
        "a"
      ],
      [
        "ak",
        "er"
      ],
      [
        "is",
        "es"
      ],
      [
        "Ġnew",
        "s"
      ],
      [
        "i",
        "res"
      ],
      [
        "Ġse",
        "qu"
      ],
      [
        "v",
        "ille"
      ],
      [
        "Ġst",
        "ep"
      ],
      [
        "ic",
        "le"
      ],
      [
        "Ġl",
        "ines"
      ],
      [
        "Ġtrans",
        "port"
      ],
      [
        "Ġbe",
        "at"
      ],
      [
        "Ġt",
        "rib"
      ],
      [
        "Ġcommun",
        "ity"
      ],
      [
        "Ġan",
        "c"
      ],
      [
        "nd",
        "ing"
      ],
      [
        "Ġvir",
        "t"
      ],
      [
        "e",
        "th"
      ],
      [
        "ve",
        "re"
      ],
      [
        "all",
        "ed"
      ],
      [
        "Ġor",
        "dered"
      ],
      [
        "Ġpol",
        "ice"
      ],
      [
        "Ġref",
        "er"
      ],
      [
        "Ġach",
        "ie"
      ],
      [
        "Ġincre",
        "ased"
      ],
      [
        "i",
        "ation"
      ],
      [
        "ann",
        "ed"
      ],
      [
        "Ġavail",
        "able"
      ],
      [
        "Ġhe",
        "alth"
      ],
      [
        "rie",
        "f"
      ],
      [
        "Ġpra",
        "ised"
      ],
      [
        "Ġh",
        "ous"
      ],
      [
        "um",
        "e"
      ],
      [
        "o",
        "on"
      ],
      [
        "Ġmich",
        "ael"
      ],
      [
        "Ġpri",
        "or"
      ],
      [
        "Ġb",
        "i"
      ],
      [
        "c",
        "an"
      ],
      [
        "Ġs",
        "ometimes"
      ],
      [
        "Ġpro",
        "b"
      ],
      [
        "Ġfilm",
        "s"
      ],
      [
        "Ġend",
        "ed"
      ],
      [
        "Ġgu",
        "ard"
      ],
      [
        "Ġparticular",
        "ly"
      ],
      [
        "th",
        "od"
      ],
      [
        "Ġrequ",
        "ired"
      ],
      [
        "Ġsp",
        "an"
      ],
      [
        "pec",
        "ially"
      ],
      [
        "Ġper",
        "cent"
      ],
      [
        "Ġlat",
        "ter"
      ],
      [
        "Ġor",
        "d"
      ],
      [
        "ri",
        "an"
      ],
      [
        "Ġbr",
        "ing"
      ],
      [
        "un",
        "g"
      ],
      [
        "Ġresp",
        "ons"
      ],
      [
        "Ġl",
        "iving"
      ],
      [
        "and",
        "ed"
      ],
      [
        "Ġsc",
        "ore"
      ],
      [
        "Ġinst",
        "it"
      ],
      [
        "Ġcour",
        "se"
      ],
      [
        "ag",
        "on"
      ],
      [
        "Ġp",
        "il"
      ],
      [
        "Ġcar",
        "ried"
      ],
      [
        "Ġout",
        "side"
      ],
      [
        "v",
        "ir"
      ],
      [
        "Ġeurope",
        "an"
      ],
      [
        "Ġam",
        "b"
      ],
      [
        "m",
        "ore"
      ],
      [
        "Ġassoci",
        "ation"
      ],
      [
        "us",
        "ing"
      ],
      [
        "Ġinfant",
        "ry"
      ],
      [
        "Ġo",
        "x"
      ],
      [
        "Ġun",
        "its"
      ],
      [
        "Ġg",
        "ot"
      ],
      [
        "if",
        "t"
      ],
      [
        "Ġwom",
        "an"
      ],
      [
        "it",
        "or"
      ],
      [
        "Ġf",
        "ood"
      ],
      [
        "Ġc",
        "red"
      ],
      [
        "Ġu",
        "k"
      ],
      [
        "Ġquest",
        "ion"
      ],
      [
        "Ġphil",
        "os"
      ],
      [
        "Ġhor",
        "se"
      ],
      [
        "u",
        "se"
      ],
      [
        "if",
        "orn"
      ],
      [
        "Ġlar",
        "gest"
      ],
      [
        "ain",
        "t"
      ],
      [
        "Ġc",
        "as"
      ],
      [
        "ar",
        "ies"
      ],
      [
        "Ġcon",
        "cept"
      ],
      [
        "Ġke",
        "y"
      ],
      [
        "Ġpos",
        "itive"
      ],
      [
        "Ġbo",
        "y"
      ],
      [
        "Ġop",
        "in"
      ],
      [
        "the",
        "ast"
      ],
      [
        "Ġter",
        "rit"
      ],
      [
        "Ġmove",
        "ment"
      ],
      [
        "Ġsc",
        "ience"
      ],
      [
        "Ġrese",
        "arch"
      ],
      [
        "Ġm",
        "ac"
      ],
      [
        "Ġoper",
        "ation"
      ],
      [
        "Ġw",
        "il"
      ],
      [
        "f",
        "ollow"
      ],
      [
        "tw",
        "ork"
      ],
      [
        "Ġsp",
        "ent"
      ],
      [
        "Ġstud",
        "y"
      ],
      [
        "pp",
        "ed"
      ],
      [
        "Ġl",
        "iber"
      ],
      [
        "Ġm",
        "art"
      ],
      [
        "Ġpo",
        "or"
      ],
      [
        "ent",
        "h"
      ],
      [
        "a",
        "ut"
      ],
      [
        "b",
        "ed"
      ],
      [
        "ribut",
        "ed"
      ],
      [
        "Ġvir",
        "gin"
      ],
      [
        "o",
        "ke"
      ],
      [
        "Ġse",
        "ction"
      ],
      [
        "Ġde",
        "ep"
      ],
      [
        "Ġpa",
        "ul"
      ],
      [
        "Ġl",
        "ake"
      ],
      [
        "Ġf",
        "it"
      ],
      [
        "n",
        "al"
      ],
      [
        "pp",
        "er"
      ],
      [
        "Ġm",
        "ary"
      ],
      [
        "Ġright",
        "s"
      ],
      [
        "Ġd",
        "raw"
      ],
      [
        "id",
        "a"
      ],
      [
        "Ġh",
        "op"
      ],
      [
        "ess",
        "ion"
      ],
      [
        "w",
        "rit"
      ],
      [
        "Ġrem",
        "ain"
      ],
      [
        "Ġro",
        "bert"
      ],
      [
        "o",
        "o"
      ],
      [
        "ress",
        "ed"
      ],
      [
        "Ġocc",
        "up"
      ],
      [
        "Ġbe",
        "y"
      ],
      [
        "Ġsen",
        "se"
      ],
      [
        "Ġac",
        "ad"
      ],
      [
        "Ġprev",
        "ent"
      ],
      [
        "st",
        "on"
      ],
      [
        "b",
        "ar"
      ],
      [
        "t",
        "t"
      ],
      [
        "Ġsold",
        "iers"
      ],
      [
        "r",
        "or"
      ],
      [
        "ers",
        "hip"
      ],
      [
        "Ġas",
        "se"
      ],
      [
        "Ġant",
        "i"
      ],
      [
        "Ġlong",
        "er"
      ],
      [
        "w",
        "here"
      ],
      [
        "Ġcomm",
        "erc"
      ],
      [
        "Ġf",
        "ailed"
      ],
      [
        "Ġcal",
        "iforn"
      ],
      [
        "Ġl",
        "ord"
      ],
      [
        "Ġen",
        "emy"
      ],
      [
        "mit",
        "ted"
      ],
      [
        "and",
        "er"
      ],
      [
        "Ġdisc",
        "uss"
[...]
